{"version":"1.0","truncation":null,"padding":null,"added_tokens":[{"id":0,"special":true,"content":"[UNK]","single_word":false,"lstrip":false,"rstrip":false,"normalized":false},{"id":1,"special":true,"content":"[CLS]","single_word":false,"lstrip":false,"rstrip":false,"normalized":false},{"id":2,"special":true,"content":"[SEP]","single_word":false,"lstrip":false,"rstrip":false,"normalized":false},{"id":3,"special":true,"content":"[PAD]","single_word":false,"lstrip":false,"rstrip":false,"normalized":false},{"id":4,"special":true,"content":"[MASK]","single_word":false,"lstrip":false,"rstrip":false,"normalized":false}],"normalizer":null,"pre_tokenizer":{"type":"Whitespace"},"post_processor":null,"decoder":null,"model":{"type":"BPE","dropout":null,"unk_token":"[UNK]","continuing_subword_prefix":null,"end_of_word_suffix":null,"fuse_unk":false,"vocab":{"[UNK]":0,"[CLS]":1,"[SEP]":2,"[PAD]":3,"[MASK]":4,"\u0010":5,"!":6,"\"":7,"#":8,"$":9,"%":10,"&":11,"'":12,"(":13,")":14,"*":15,"+":16,",":17,"-":18,".":19,"/":20,"0":21,"1":22,"2":23,"3":24,"4":25,"5":26,"6":27,"7":28,"8":29,"9":30,":":31,";":32,"<":33,"=":34,">":35,"?":36,"@":37,"A":38,"B":39,"C":40,"D":41,"E":42,"F":43,"G":44,"H":45,"I":46,"J":47,"K":48,"L":49,"M":50,"N":51,"O":52,"P":53,"Q":54,"R":55,"S":56,"T":57,"U":58,"V":59,"W":60,"X":61,"Y":62,"Z":63,"[":64,"\\":65,"]":66,"^":67,"_":68,"`":69,"a":70,"b":71,"c":72,"d":73,"e":74,"f":75,"g":76,"h":77,"i":78,"j":79,"k":80,"l":81,"m":82,"n":83,"o":84,"p":85,"q":86,"r":87,"s":88,"t":89,"u":90,"v":91,"w":92,"x":93,"y":94,"z":95,"{":96,"|":97,"}":98,"~":99,"¡":100,"¢":101,"£":102,"¤":103,"¥":104,"§":105,"¨":106,"©":107,"ª":108,"«":109,"¬":110,"­":111,"®":112,"¯":113,"°":114,"²":115,"³":116,"´":117,"¶":118,"·":119,"¸":120,"¹":121,"º":122,"»":123,"¼":124,"½":125,"¾":126,"¿":127,"À":128,"Á":129,"Â":130,"Ã":131,"Ä":132,"Ç":133,"È":134,"É":135,"Ê":136,"Ì":137,"Í":138,"Ñ":139,"Ó":140,"Ô":141,"Õ":142,"Ö":143,"×":144,"Ø":145,"Ù":146,"Ú":147,"Ü":148,"ß":149,"à":150,"á":151,"â":152,"ã":153,"ä":154,"å":155,"æ":156,"ç":157,"è":158,"é":159,"ê":160,"ë":161,"ì":162,"í":163,"î":164,"ï":165,"ñ":166,"ò":167,"ó":168,"ô":169,"õ":170,"ö":171,"÷":172,"ø":173,"ù":174,"ú":175,"û":176,"ü":177,"ý":178,"ÿ":179,"ā":180,"ă":181,"ą":182,"Ć":183,"ć":184,"Č":185,"č":186,"Đ":187,"đ":188,"ē":189,"ĕ":190,"Ė":191,"ę":192,"ě":193,"ğ":194,"ī":195,"ĭ":196,"į":197,"İ":198,"ı":199,"Ĺ":200,"Ł":201,"ł":202,"ń":203,"ō":204,"ő":205,"œ":206,"ŕ":207,"ś":208,"Š":209,"š":210,"ũ":211,"ū":212,"ű":213,"ų":214,"ŵ":215,"Ÿ":216,"ź":217,"Ż":218,"ż":219,"ž":220,"ơ":221,"ư":222,"ǔ":223,"ǝ":224,"Ș":225,"ș":226,"ț":227,"ə":228,"ɛ":229,"ɟ":230,"ɢ":231,"ɥ":232,"ɪ":233,"ɴ":234,"ɹ":235,"ʀ":236,"ʇ":237,"ʍ":238,"ʏ":239,"ʖ":240,"ʙ":241,"ʜ":242,"ʟ":243,"ʬ":244,"ʼ":245,"ʿ":246,"ˈ":247,"ˊ":248,"ˋ":249,"ˌ":250,"˚":251,"˛":252,"˜":253,"ˢ":254,"˥":255,"̀":256,"́":257,"̂":258,"̃":259,"̄":260,"̆":261,"̇":262,"̈":263,"̉":264,"̋":265,"̏":266,"̐":267,"̑":268,"̓":269,"̔":270,"̕":271,"̗":272,"̚":273,"̜":274,"̞":275,"̟":276,"̠":277,"̡":278,"̢":279,"̣":280,"̤":281,"̥":282,"̦":283,"̧":284,"̨":285,"̫":286,"̭":287,"̮":288,"̯":289,"̳":290,"̴":291,"̵":292,"̶":293,"̷":294,"̸":295,"̺":296,"̼":297,"̾":298,"̿":299,"ͅ":300,"͆":301,"͇":302,"͈":303,"͋":304,"͔":305,"͕":306,"͘":307,"͚":308,"͜":309,"͝":310,"͟":311,"͠":312,"͡":313,"Ͷ":314,"Έ":315,"Α":316,"Β":317,"Ε":318,"Θ":319,"Ι":320,"Λ":321,"Μ":322,"Ν":323,"Ο":324,"Ρ":325,"Σ":326,"Τ":327,"Υ":328,"Ω":329,"ά":330,"έ":331,"ή":332,"ί":333,"α":334,"β":335,"γ":336,"δ":337,"ε":338,"η":339,"θ":340,"ι":341,"κ":342,"λ":343,"μ":344,"ν":345,"ο":346,"π":347,"ρ":348,"ς":349,"σ":350,"τ":351,"υ":352,"φ":353,"χ":354,"ω":355,"ό":356,"ύ":357,"ϑ":358,"Ϛ":359,"ϲ":360,"ϻ":361,"Ё":362,"Ј":363,"Љ":364,"А":365,"Б":366,"В":367,"Г":368,"Д":369,"Е":370,"Ж":371,"З":372,"И":373,"Й":374,"К":375,"Л":376,"М":377,"Н":378,"О":379,"П":380,"Р":381,"С":382,"Т":383,"У":384,"Ф":385,"Х":386,"Ц":387,"Ч":388,"Ш":389,"Ы":390,"Ь":391,"Ю":392,"Я":393,"а":394,"б":395,"в":396,"г":397,"д":398,"е":399,"ж":400,"з":401,"и":402,"й":403,"к":404,"л":405,"м":406,"н":407,"о":408,"п":409,"р":410,"с":411,"т":412,"у":413,"ф":414,"х":415,"ц":416,"ч":417,"ш":418,"щ":419,"ы":420,"ь":421,"э":422,"ю":423,"я":424,"ё":425,"ђ":426,"і":427,"ј":428,"љ":429,"њ":430,"ћ":431,"џ":432,"҉":433,"қ":434,"Օ":435,"ա":436,"դ":437,"ե":438,"ը":439,"թ":440,"ի":441,"կ":442,"ղ":443,"ճ":444,"մ":445,"յ":446,"ն":447,"ո":448,"ջ":449,"ս":450,"տ":451,"ր":452,"ւ":453,"֑":454,"֖":455,"֣":456,"ְ":457,"ֱ":458,"ֲ":459,"ִ":460,"ֵ":461,"ֶ":462,"ַ":463,"ָ":464,"ֹ":465,"ּ":466,"ֽ":467,"ׁ":468,"ׂ":469,"׃":470,"א":471,"ב":472,"ג":473,"ד":474,"ה":475,"ו":476,"ז":477,"ח":478,"ט":479,"י":480,"ך":481,"כ":482,"ל":483,"ם":484,"מ":485,"ן":486,"נ":487,"ס":488,"ע":489,"ף":490,"פ":491,"ץ":492,"צ":493,"ק":494,"ר":495,"ש":496,"ת":497,"״":498,"،":499,"؏":500,"؛":501,"؜":502,"؟":503,"ء":504,"آ":505,"أ":506,"ؤ":507,"إ":508,"ئ":509,"ا":510,"ب":511,"ة":512,"ت":513,"ث":514,"ج":515,"ح":516,"خ":517,"د":518,"ذ":519,"ر":520,"ز":521,"س":522,"ش":523,"ص":524,"ض":525,"ط":526,"ظ":527,"ع":528,"غ":529,"ـ":530,"ف":531,"ق":532,"ك":533,"ل":534,"م":535,"ن":536,"ه":537,"و":538,"ى":539,"ي":540,"ً":541,"ٌ":542,"ٍ":543,"َ":544,"ُ":545,"ِ":546,"ّ":547,"ْ":548,"ٓ":549,"ٔ":550,"ٕ":551,"٠":552,"١":553,"٢":554,"٣":555,"٤":556,"٥":557,"٦":558,"٧":559,"٨":560,"٩":561,"٪":562,"ٰ":563,"ٱ":564,"پ":565,"چ":566,"ژ":567,"ڤ":568,"ک":569,"گ":570,"ھ":571,"ہ":572,"ۃ":573,"ۆ":574,"ی":575,"ێ":576,"ے":577,"ە":578,"ۖ":579,"ۚ":580,"۝":581,"۟":582,"ۡ":583,"ۦ":584,"۰":585,"۱":586,"۲":587,"۳":588,"۴":589,"۵":590,"۶":591,"۷":592,"۸":593,"۹":594,"ࣱ":595,"ँ":596,"ं":597,"ः":598,"अ":599,"आ":600,"क":601,"ख":602,"ग":603,"च":604,"ज":605,"ञ":606,"ट":607,"ड":608,"ण":609,"त":610,"द":611,"ध":612,"न":613,"प":614,"ब":615,"भ":616,"म":617,"य":618,"र":619,"ल":620,"व":621,"श":622,"ष":623,"स":624,"ह":625,"़":626,"ा":627,"ि":628,"ी":629,"ु":630,"ू":631,"ृ":632,"े":633,"ै":634,"ो":635,"्":636,"।":637,"ಠ":638,"෴":639,"ก":640,"ค":641,"ง":642,"จ":643,"ช":644,"ด":645,"ต":646,"ท":647,"บ":648,"พ":649,"ฟ":650,"ม":651,"ร":652,"ว":653,"ส":654,"อ":655,"ะ":656,"ั":657,"า":658,"ี":659,"ื":660,"ุ":661,"เ":662,"ใ":663,"็":664,"่":665,"้":666,"๊":667,"๏":668,"༺":669,"༼":670,"༽":671,"ა":672,"ბ":673,"გ":674,"დ":675,"ე":676,"ვ":677,"თ":678,"ი":679,"ლ":680,"მ":681,"ო":682,"რ":683,"ს":684,"ტ":685,"უ":686,"ფ":687,"ქ":688,"ღ":689,"შ":690,"ჩ":691,"ჯ":692,"Ꮭ":693,"ᐯ":694,"ᑌ":695,"ᑎ":696,"ᑕ":697,"ᑭ":698,"ᔕ":699,"ᖇ":700,"ᖴ":701,"ᗜ":702,"ᗩ":703,"ᗪ":704,"ᗰ":705,"ᗴ":706,"ᗷ":707,"᠂":708,"᠄":709,"᠊":710,"᠋":711,"᠎":712,"ᠠ":713,"ᠡ":714,"ᠢ":715,"ᠣ":716,"ᠤ":717,"ᠥ":718,"ᠦ":719,"ᠧ":720,"ᠨ":721,"ᠩ":722,"ᠪ":723,"ᠬ":724,"ᠭ":725,"ᠮ":726,"ᠯ":727,"ᠰ":728,"ᠲ":729,"ᠳ":730,"ᠴ":731,"ᠵ":732,"ᠶ":733,"ᠷ":734,"᭙":735,"ᴀ":736,"ᴄ":737,"ᴅ":738,"ᴇ":739,"ᴉ":740,"ᴊ":741,"ᴋ":742,"ᴍ":743,"ᴏ":744,"ᴗ":745,"ᴘ":746,"ᴛ":747,"ᴜ":748,"ᴠ":749,"ᴡ":750,"ᴵ":751,"ᴸ":752,"ṇ":753,"ṣ":754,"ạ":755,"ả":756,"ậ":757,"ắ":758,"ế":759,"ễ":760,"ệ":761,"ỉ":762,"ị":763,"ồ":764,"ộ":765,"ớ":766,"ờ":767,"ở":768,"ử":769,"ὼ":770,"​":771,"‌":772,"‍":773,"‎":774,"‏":775,"‐":776,"‑":777,"–":778,"—":779,"―":780,"‘":781,"’":782,"‚":783,"“":784,"”":785,"„":786,"†":787,"•":788,"․":789,"…":790,"‧":791,"‪":792,"‫":793,"‬":794,"‭":795,"′":796,"″":797,"‸":798,"›":799,"※":800,"‼":801,"‿":802,"⁀":803,"⁉":804,"⁠":805,"⁣":806,"⁦":807,"⁧":808,"⁩":809,"⁸":810,"⁽":811,"₎":812,"₩":813,"€":814,"₷":815,"⃣":816,"ℂ":817,"ℍ":818,"ℎ":819,"ℕ":820,"ℙ":821,"ℝ":822,"™":823,"ℹ":824,"→":825,"↓":826,"↔":827,"↗":828,"↘":829,"↩":830,"↪":831,"⇊":832,"⇑":833,"⇒":834,"⇦":835,"⇨":836,"⇩":837,"∅":838,"∆":839,"∙":840,"∩":841,"≠":842,"⊤":843,"⋆":844,"⋯":845,"⋱":846,"⌚":847,"⌛":848,"⏩":849,"⏫":850,"⏬":851,"⏰":852,"⏱":853,"⏳":854,"⏸":855,"Ⓓ":856,"Ⓗ":857,"Ⓜ":858,"Ⓝ":859,"Ⓞ":860,"Ⓣ":861,"Ⓤ":862,"Ⓨ":863,"ⓓ":864,"ⓔ":865,"ⓕ":866,"ⓘ":867,"ⓝ":868,"ⓡ":869,"ⓢ":870,"─":871,"━":872,"┃":873,"┏":874,"┓":875,"┗":876,"┛":877,"┻":878,"═":879,"╤":880,"╦":881,"╩":882,"▀":883,"▄":884,"█":885,"▌":886,"░":887,"■":888,"□":889,"▪":890,"▫":891,"▶":892,"►":893,"▻":894,"◀":895,"◄":896,"◅":897,"◇":898,"○":899,"●":900,"◕":901,"◦":902,"◼":903,"◾":904,"☀":905,"☁":906,"☃":907,"☄":908,"★":909,"☆":910,"☇":911,"☎":912,"☑":913,"☔":914,"☕":915,"☘":916,"☜":917,"☝":918,"☞":919,"☠":920,"☡":921,"☢":922,"☣":923,"☤":924,"☦":925,"☪":926,"☭":927,"☮":928,"☯":929,"☸":930,"☹":931,"☺":932,"☻":933,"♀":934,"♂":935,"♋":936,"♌":937,"♍":938,"♐":939,"♔":940,"♕":941,"♝":942,"♞":943,"♟":944,"♠":945,"♡":946,"♣":947,"♤":948,"♥":949,"♦":950,"♧":951,"♨":952,"♩":953,"♪":954,"♫":955,"♻":956,"♾":957,"♿":958,"⚀":959,"⚁":960,"⚂":961,"⚆":962,"⚒":963,"⚓":964,"⚔":965,"⚕":966,"⚖":967,"⚗":968,"⚘":969,"⚙":970,"⚛":971,"⚜":972,"⚠":973,"⚡":974,"⚪":975,"⚫":976,"⚰":977,"⚽":978,"⚾":979,"⛄":980,"⛅":981,"⛈":982,"⛏":983,"⛓":984,"⛔":985,"⛩":986,"⛪":987,"⛰":988,"⛱":989,"⛳":990,"⛴":991,"⛷":992,"⛽":993,"✂":994,"✅":995,"✆":996,"✈":997,"✉":998,"✊":999,"✋":1000,"✌":1001,"✍":1002,"✏":1003,"✓":1004,"✔":1005,"✖":1006,"✘":1007,"✝":1008,"✟":1009,"✠":1010,"✡":1011,"✨":1012,"✪":1013,"✮":1014,"✰":1015,"✲":1016,"✳":1017,"✷":1018,"✼":1019,"❄":1020,"❇":1021,"❌":1022,"❎":1023,"❓":1024,"❔":1025,"❕":1026,"❗":1027,"❝":1028,"❞":1029,"❣":1030,"❤":1031,"➕":1032,"➖":1033,"➜":1034,"➡":1035,"➤":1036,"➰":1037,"➼":1038,"⠀":1039,"⤵":1040,"⦁":1041,"⬅":1042,"⬆":1043,"⬇":1044,"⬛":1045,"⬜":1046,"⭐":1047,"⭕":1048,"、":1049,"。":1050,"々":1051,"〇":1052,"《":1053,"》":1054,"「":1055,"」":1056,"『":1057,"』":1058,"【":1059,"】":1060,"〓":1061,"〜":1062,"〽":1063,"ぁ":1064,"あ":1065,"い":1066,"ぅ":1067,"う":1068,"ぇ":1069,"え":1070,"お":1071,"か":1072,"が":1073,"き":1074,"ぎ":1075,"く":1076,"ぐ":1077,"け":1078,"げ":1079,"こ":1080,"ご":1081,"さ":1082,"ざ":1083,"し":1084,"じ":1085,"す":1086,"ず":1087,"せ":1088,"ぜ":1089,"そ":1090,"ぞ":1091,"た":1092,"だ":1093,"ち":1094,"っ":1095,"つ":1096,"づ":1097,"て":1098,"で":1099,"と":1100,"ど":1101,"な":1102,"に":1103,"ぬ":1104,"ね":1105,"の":1106,"は":1107,"ば":1108,"ぱ":1109,"ひ":1110,"び":1111,"ふ":1112,"ぶ":1113,"へ":1114,"べ":1115,"ぺ":1116,"ほ":1117,"ぼ":1118,"ぽ":1119,"ま":1120,"み":1121,"む":1122,"め":1123,"も":1124,"ゃ":1125,"や":1126,"ゅ":1127,"ゆ":1128,"ょ":1129,"よ":1130,"ら":1131,"り":1132,"る":1133,"れ":1134,"ろ":1135,"わ":1136,"を":1137,"ん":1138,"ァ":1139,"ア":1140,"ィ":1141,"イ":1142,"ウ":1143,"ェ":1144,"エ":1145,"ォ":1146,"オ":1147,"カ":1148,"ガ":1149,"キ":1150,"ギ":1151,"ク":1152,"グ":1153,"ケ":1154,"コ":1155,"ゴ":1156,"サ":1157,"ザ":1158,"シ":1159,"ジ":1160,"ス":1161,"ズ":1162,"セ":1163,"ソ":1164,"ゾ":1165,"タ":1166,"ダ":1167,"チ":1168,"ッ":1169,"ツ":1170,"テ":1171,"デ":1172,"ト":1173,"ド":1174,"ナ":1175,"ニ":1176,"ネ":1177,"ノ":1178,"ハ":1179,"バ":1180,"パ":1181,"ヒ":1182,"ビ":1183,"ピ":1184,"フ":1185,"ブ":1186,"プ":1187,"ベ":1188,"ペ":1189,"ホ":1190,"ボ":1191,"ポ":1192,"マ":1193,"ミ":1194,"ム":1195,"メ":1196,"モ":1197,"ャ":1198,"ュ":1199,"ユ":1200,"ョ":1201,"ヨ":1202,"ラ":1203,"リ":1204,"ル":1205,"レ":1206,"ロ":1207,"ワ":1208,"ン":1209,"・":1210,"ー":1211,"ㅤ":1212,"㊗":1213,"一":1214,"七":1215,"万":1216,"三":1217,"上":1218,"下":1219,"不":1220,"与":1221,"丑":1222,"专":1223,"且":1224,"世":1225,"业":1226,"东":1227,"丝":1228,"丢":1229,"两":1230,"严":1231,"並":1232,"个":1233,"中":1234,"丰":1235,"临":1236,"丹":1237,"为":1238,"主":1239,"丽":1240,"举":1241,"久":1242,"么":1243,"义":1244,"之":1245,"乌":1246,"乎":1247,"乐":1248,"乔":1249,"九":1250,"也":1251,"习":1252,"书":1253,"买":1254,"乱":1255,"乾":1256,"亂":1257,"了":1258,"争":1259,"事":1260,"二":1261,"于":1262,"云":1263,"互":1264,"五":1265,"井":1266,"亚":1267,"些":1268,"亜":1269,"亞":1270,"亡":1271,"交":1272,"亦":1273,"产":1274,"亨":1275,"享":1276,"京":1277,"亲":1278,"人":1279,"亿":1280,"什":1281,"仅":1282,"仆":1283,"仇":1284,"今":1285,"介":1286,"仍":1287,"从":1288,"仔":1289,"仕":1290,"他":1291,"付":1292,"代":1293,"令":1294,"以":1295,"仪":1296,"们":1297,"仮":1298,"仰":1299,"仲":1300,"件":1301,"价":1302,"任":1303,"份":1304,"仿":1305,"企":1306,"伏":1307,"休":1308,"众":1309,"伙":1310,"会":1311,"伝":1312,"伟":1313,"传":1314,"伤":1315,"伦":1316,"伪":1317,"伯":1318,"估":1319,"伴":1320,"似":1321,"但":1322,"佈":1323,"位":1324,"住":1325,"佐":1326,"佑":1327,"体":1328,"何":1329,"余":1330,"佛":1331,"作":1332,"你":1333,"佢":1334,"佩":1335,"佬":1336,"使":1337,"來":1338,"例":1339,"供":1340,"依":1341,"価":1342,"侯":1343,"侵":1344,"便":1345,"係":1346,"俘":1347,"保":1348,"信":1349,"修":1350,"俵":1351,"俺":1352,"倆":1353,"個":1354,"倍":1355,"們":1356,"倒":1357,"候":1358,"借":1359,"値":1360,"值":1361,"假":1362,"偉":1363,"偏":1364,"做":1365,"停":1366,"健":1367,"側":1368,"偷":1369,"偽":1370,"傅":1371,"備":1372,"储":1373,"催":1374,"傳":1375,"傷":1376,"傻":1377,"傾":1378,"僅":1379,"像":1380,"價":1381,"億":1382,"儘":1383,"償":1384,"優":1385,"儿":1386,"允":1387,"元":1388,"兄":1389,"充":1390,"兆":1391,"兇":1392,"先":1393,"光":1394,"克":1395,"兌":1396,"免":1397,"党":1398,"入":1399,"內":1400,"全":1401,"兩":1402,"八":1403,"公":1404,"六":1405,"兰":1406,"共":1407,"关":1408,"兴":1409,"兵":1410,"其":1411,"具":1412,"典":1413,"兹":1414,"兼":1415,"内":1416,"円":1417,"冇":1418,"冉":1419,"册":1420,"再":1421,"冒":1422,"冗":1423,"写":1424,"冚":1425,"军":1426,"农":1427,"冠":1428,"冰":1429,"决":1430,"况":1431,"冷":1432,"凄":1433,"准":1434,"凌":1435,"减":1436,"几":1437,"凡":1438,"処":1439,"凯":1440,"凶":1441,"出":1442,"击":1443,"刀":1444,"分":1445,"切":1446,"刈":1447,"刑":1448,"划":1449,"列":1450,"刘":1451,"刚":1452,"创":1453,"初":1454,"删":1455,"判":1456,"別":1457,"利":1458,"别":1459,"到":1460,"制":1461,"刷":1462,"券":1463,"刻":1464,"削":1465,"前":1466,"剤":1467,"剧":1468,"副":1469,"割":1470,"創":1471,"剷":1472,"劃":1473,"力":1474,"功":1475,"加":1476,"务":1477,"动":1478,"助":1479,"劫":1480,"効":1481,"势":1482,"勇":1483,"勒":1484,"動":1485,"勘":1486,"務":1487,"勝":1488,"勢":1489,"勤":1490,"勾":1491,"包":1492,"化":1493,"北":1494,"匙":1495,"匪":1496,"区":1497,"區":1498,"十":1499,"千":1500,"升":1501,"午":1502,"半":1503,"华":1504,"协":1505,"卑":1506,"单":1507,"卖":1508,"南":1509,"単":1510,"博":1511,"占":1512,"卡":1513,"卧":1514,"印":1515,"危":1516,"即":1517,"却":1518,"卷":1519,"卻":1520,"厅":1521,"历":1522,"厉":1523,"压":1524,"原":1525,"厨":1526,"厳":1527,"去":1528,"县":1529,"参":1530,"參":1531,"又":1532,"及":1533,"友":1534,"双":1535,"反":1536,"収":1537,"发":1538,"叔":1539,"取":1540,"受":1541,"变":1542,"叛":1543,"口":1544,"古":1545,"另":1546,"叨":1547,"叩":1548,"只":1549,"叫":1550,"召":1551,"可":1552,"台":1553,"史":1554,"右":1555,"叶":1556,"号":1557,"司":1558,"叹":1559,"吁":1560,"吃":1561,"各":1562,"合":1563,"吉":1564,"同":1565,"名":1566,"后":1567,"吐":1568,"向":1569,"吗":1570,"君":1571,"否":1572,"吧":1573,"含":1574,"听":1575,"吸":1576,"吹":1577,"呀":1578,"呂":1579,"告":1580,"呑":1581,"员":1582,"呟":1583,"呢":1584,"周":1585,"味":1586,"呵":1587,"呼":1588,"命":1589,"和":1590,"咒":1591,"咗":1592,"咱":1593,"品":1594,"哈":1595,"哋":1596,"响":1597,"員":1598,"哥":1599,"哦":1600,"哨":1601,"哪":1602,"哭":1603,"唆":1604,"唐":1605,"唔":1606,"售":1607,"唯":1608,"商":1609,"啊":1610,"問":1611,"啓":1612,"啥":1613,"啦":1614,"善":1615,"喉":1616,"喊":1617,"喋":1618,"喜":1619,"單":1620,"嗰":1621,"嘅":1622,"嘉":1623,"嘘":1624,"嘛":1625,"嘩":1626,"嘲":1627,"嘴":1628,"噤":1629,"器":1630,"嚇":1631,"嚟":1632,"嚴":1633,"四":1634,"回":1635,"因":1636,"团":1637,"団":1638,"园":1639,"困":1640,"固":1641,"国":1642,"图":1643,"圆":1644,"國":1645,"圏":1646,"圓":1647,"圖":1648,"團":1649,"土":1650,"在":1651,"地":1652,"场":1653,"坂":1654,"均":1655,"坑":1656,"坚":1657,"坛":1658,"坞":1659,"型":1660,"埃":1661,"埋":1662,"城":1663,"執":1664,"培":1665,"基":1666,"堂":1667,"堅":1668,"堕":1669,"堡":1670,"報":1671,"場":1672,"塌":1673,"塔":1674,"塞":1675,"填":1676,"境":1677,"増":1678,"墙":1679,"墨":1680,"墮":1681,"壓":1682,"壞":1683,"士":1684,"壮":1685,"声":1686,"売":1687,"壺":1688,"处":1689,"备":1690,"変":1691,"复":1692,"夕":1693,"外":1694,"多":1695,"夜":1696,"够":1697,"夢":1698,"大":1699,"天":1700,"太":1701,"夫":1702,"失":1703,"头":1704,"夺":1705,"奇":1706,"奈":1707,"奋":1708,"套":1709,"奥":1710,"奧":1711,"奪":1712,"女":1713,"奴":1714,"她":1715,"好":1716,"如":1717,"妄":1718,"妇":1719,"妖":1720,"妙":1721,"妥":1722,"妹":1723,"姆":1724,"姉":1725,"始":1726,"姐":1727,"姓":1728,"委":1729,"姨":1730,"姻":1731,"威":1732,"婆":1733,"婚":1734,"婦":1735,"婿":1736,"媒":1737,"媽":1738,"媾":1739,"嫁":1740,"嫂":1741,"嬉":1742,"子":1743,"字":1744,"存":1745,"学":1746,"孩":1747,"學":1748,"孽":1749,"宁":1750,"它":1751,"宅":1752,"宇":1753,"守":1754,"安":1755,"完":1756,"宗":1757,"官":1758,"宙":1759,"定":1760,"宜":1761,"宝":1762,"实":1763,"実":1764,"宠":1765,"审":1766,"客":1767,"宣":1768,"室":1769,"宪":1770,"宫":1771,"害":1772,"家":1773,"容":1774,"宾":1775,"寄":1776,"密":1777,"富":1778,"寒":1779,"寝":1780,"察":1781,"實":1782,"審":1783,"寫":1784,"寶":1785,"对":1786,"导":1787,"対":1788,"寿":1789,"封":1790,"射":1791,"将":1792,"將":1793,"尊":1794,"對":1795,"導":1796,"小":1797,"少":1798,"尔":1799,"尖":1800,"尘":1801,"就":1802,"尻":1803,"尼":1804,"尽":1805,"尾":1806,"局":1807,"屁":1808,"层":1809,"居":1810,"屈":1811,"届":1812,"屋":1813,"屌":1814,"屏":1815,"展":1816,"屬":1817,"山":1818,"岐":1819,"岛":1820,"岩":1821,"岸":1822,"崎":1823,"崩":1824,"川":1825,"州":1826,"工":1827,"左":1828,"巧":1829,"巨":1830,"巫":1831,"差":1832,"己":1833,"已":1834,"巴":1835,"巻":1836,"币":1837,"市":1838,"布":1839,"师":1840,"希":1841,"帜":1842,"帝":1843,"带":1844,"師":1845,"席":1846,"帮":1847,"帯":1848,"帳":1849,"常":1850,"幕":1851,"幫":1852,"干":1853,"平":1854,"年":1855,"并":1856,"幸":1857,"幹":1858,"幻":1859,"幼":1860,"幾":1861,"広":1862,"应":1863,"底":1864,"庚":1865,"府":1866,"度":1867,"座":1868,"庫":1869,"庭":1870,"康":1871,"廢":1872,"延":1873,"建":1874,"开":1875,"弁":1876,"异":1877,"弃":1878,"弊":1879,"式":1880,"引":1881,"弗":1882,"弟":1883,"张":1884,"弱":1885,"張":1886,"強":1887,"弹":1888,"强":1889,"当":1890,"录":1891,"形":1892,"彤":1893,"彦":1894,"彩":1895,"彪":1896,"影":1897,"役":1898,"彻":1899,"彼":1900,"往":1901,"征":1902,"径":1903,"待":1904,"很":1905,"律":1906,"後":1907,"徒":1908,"得":1909,"從":1910,"復":1911,"微":1912,"德":1913,"徹":1914,"心":1915,"必":1916,"忌":1917,"忍":1918,"忘":1919,"忙":1920,"応":1921,"忠":1922,"忧":1923,"快":1924,"念":1925,"忽":1926,"怀":1927,"态":1928,"怎":1929,"怒":1930,"怕":1931,"怖":1932,"思":1933,"急":1934,"性":1935,"怪":1936,"怯":1937,"总":1938,"恋":1939,"恐":1940,"恢":1941,"恥":1942,"恨":1943,"恩":1944,"恭":1945,"息":1946,"恶":1947,"悉":1948,"悔":1949,"悟":1950,"悠":1951,"患":1952,"悦":1953,"您":1954,"悪":1955,"悲":1956,"情":1957,"惊":1958,"惑":1959,"惕":1960,"惡":1961,"惩":1962,"惮":1963,"想":1964,"惹":1965,"意":1966,"愛":1967,"感":1968,"愤":1969,"愿":1970,"慈":1971,"態":1972,"慌":1973,"慎":1974,"慢":1975,"慣":1976,"慮":1977,"慰":1978,"慶":1979,"憂":1980,"憎":1981,"憐":1982,"憲":1983,"憶":1984,"憾":1985,"懂":1986,"應":1987,"懐":1988,"懲":1989,"懸":1990,"戏":1991,"成":1992,"我":1993,"戒":1994,"或":1995,"战":1996,"戦":1997,"戰":1998,"戲":1999,"戶":2000,"所":2001,"手":2002,"才":2003,"扎":2004,"扒":2005,"打":2006,"托":2007,"扣":2008,"扭":2009,"扮":2010,"扱":2011,"扶":2012,"批":2013,"找":2014,"承":2015,"技":2016,"把":2017,"抑":2018,"抓":2019,"投":2020,"抖":2021,"抗":2022,"抛":2023,"抜":2024,"択":2025,"护":2026,"报":2027,"抵":2028,"押":2029,"担":2030,"拆":2031,"拉":2032,"拍":2033,"拒":2034,"拖":2035,"拘":2036,"拜":2037,"拝":2038,"拠":2039,"拡":2040,"择":2041,"拭":2042,"拯":2043,"拼":2044,"拿":2045,"持":2046,"挂":2047,"指":2048,"按":2049,"挑":2050,"挖":2051,"挙":2052,"挟":2053,"振":2054,"挺":2055,"挽":2056,"捉":2057,"捏":2058,"捕":2059,"捡":2060,"据":2061,"掉":2062,"掌":2063,"排":2064,"掛":2065,"採":2066,"接":2067,"控":2068,"推":2069,"掩":2070,"措":2071,"掲":2072,"掴":2073,"提":2074,"換":2075,"握":2076,"揭":2077,"揮":2078,"援":2079,"揸":2080,"搂":2081,"搞":2082,"搬":2083,"搭":2084,"搵":2085,"搶":2086,"携":2087,"摒":2088,"摘":2089,"摩":2090,"摸":2091,"摺":2092,"撐":2093,"撒":2094,"撕":2095,"撥":2096,"播":2097,"撲":2098,"擁":2099,"操":2100,"擔":2101,"據":2102,"擴":2103,"支":2104,"收":2105,"改":2106,"攻":2107,"放":2108,"政":2109,"故":2110,"效":2111,"敌":2112,"敏":2113,"救":2114,"敗":2115,"教":2116,"敢":2117,"散":2118,"敬":2119,"数":2120,"敲":2121,"整":2122,"敵":2123,"數":2124,"文":2125,"斗":2126,"料":2127,"斜":2128,"断":2129,"斯":2130,"新":2131,"斷":2132,"方":2133,"於":2134,"施":2135,"旅":2136,"族":2137,"旗":2138,"无":2139,"既":2140,"日":2141,"旦":2142,"早":2143,"时":2144,"昆":2145,"明":2146,"易":2147,"昔":2148,"星":2149,"映":2150,"昨":2151,"是":2152,"昼":2153,"显":2154,"時":2155,"晒":2156,"晚":2157,"晨":2158,"晩":2159,"普":2160,"景":2161,"晰":2162,"晴":2163,"智":2164,"暇":2165,"暗":2166,"暫":2167,"暮":2168,"暴":2169,"曜":2170,"曝":2171,"曲":2172,"更":2173,"書":2174,"曹":2175,"曾":2176,"替":2177,"最":2178,"會":2179,"月":2180,"有":2181,"朋":2182,"服":2183,"朗":2184,"望":2185,"朝":2186,"期":2187,"木":2188,"未":2189,"本":2190,"札":2191,"朱":2192,"机":2193,"杀":2194,"杂":2195,"权":2196,"材":2197,"村":2198,"杖":2199,"杜":2200,"束":2201,"条":2202,"来":2203,"杨":2204,"杯":2205,"杰":2206,"東":2207,"松":2208,"板":2209,"极":2210,"构":2211,"析":2212,"林":2213,"枚":2214,"果":2215,"枢":2216,"架":2217,"柄":2218,"某":2219,"染":2220,"查":2221,"査":2222,"栄":2223,"栏":2224,"校":2225,"样":2226,"核":2227,"根":2228,"格":2229,"桁":2230,"案":2231,"桑":2232,"桜":2233,"桥":2234,"桶":2235,"條":2236,"梦":2237,"棒":2238,"森":2239,"業":2240,"極":2241,"楽":2242,"概":2243,"榆":2244,"榜":2245,"槍":2246,"様":2247,"樂":2248,"標":2249,"模":2250,"樣":2251,"権":2252,"樱":2253,"樹":2254,"機":2255,"橫":2256,"欄":2257,"權":2258,"欠":2259,"次":2260,"欣":2261,"欲":2262,"欺":2263,"款":2264,"歇":2265,"歓":2266,"歡":2267,"止":2268,"正":2269,"此":2270,"步":2271,"武":2272,"歧":2273,"歩":2274,"歲":2275,"歴":2276,"死":2277,"殖":2278,"殲":2279,"段":2280,"殺":2281,"毀":2282,"毁":2283,"母":2284,"毎":2285,"每":2286,"毒":2287,"比":2288,"毛":2289,"氏":2290,"民":2291,"气":2292,"気":2293,"氣":2294,"水":2295,"永":2296,"求":2297,"汇":2298,"汚":2299,"江":2300,"汹":2301,"決":2302,"沃":2303,"沆":2304,"沉":2305,"沒":2306,"沖":2307,"沙":2308,"没":2309,"沢":2310,"油":2311,"治":2312,"沼":2313,"沿":2314,"況":2315,"泄":2316,"泉":2317,"法":2318,"泡":2319,"波":2320,"注":2321,"泪":2322,"泳":2323,"泽":2324,"洗":2325,"洛":2326,"洲":2327,"活":2328,"派":2329,"流":2330,"浏":2331,"浩":2332,"海":2333,"浸":2334,"消":2335,"涉":2336,"液":2337,"淪":2338,"淫":2339,"深":2340,"混":2341,"添":2342,"清":2343,"済":2344,"渉":2345,"渋":2346,"渔":2347,"渗":2348,"減":2349,"温":2350,"港":2351,"游":2352,"湊":2353,"湾":2354,"満":2355,"溃":2356,"準":2357,"溜":2358,"溯":2359,"滅":2360,"滞":2361,"满":2362,"滲":2363,"漏":2364,"演":2365,"漢":2366,"潑":2367,"澤":2368,"澳":2369,"激":2370,"濟":2371,"濱":2372,"瀋":2373,"瀕":2374,"瀣":2375,"灣":2376,"火":2377,"灭":2378,"灯":2379,"灰":2380,"灵":2381,"灾":2382,"炉":2383,"炎":2384,"炒":2385,"炮":2386,"炸":2387,"点":2388,"為":2389,"烈":2390,"烧":2391,"热":2392,"無":2393,"焰":2394,"然":2395,"照":2396,"熊":2397,"熟":2398,"燃":2399,"燈":2400,"燒":2401,"爆":2402,"爛":2403,"爭":2404,"爱":2405,"爲":2406,"父":2407,"爹":2408,"爺":2409,"爾":2410,"片":2411,"版":2412,"牌":2413,"牙":2414,"牛":2415,"牠":2416,"牢":2417,"牧":2418,"物":2419,"特":2420,"犬":2421,"犯":2422,"状":2423,"犹":2424,"狀":2425,"狂":2426,"狗":2427,"独":2428,"狱":2429,"狸":2430,"猎":2431,"猛":2432,"猜":2433,"獄":2434,"獎":2435,"率":2436,"王":2437,"玛":2438,"玩":2439,"环":2440,"现":2441,"珉":2442,"珍":2443,"珠":2444,"班":2445,"現":2446,"球":2447,"理":2448,"琴":2449,"瑪":2450,"璧":2451,"環":2452,"瓦":2453,"瓶":2454,"甘":2455,"甚":2456,"生":2457,"產":2458,"産":2459,"用":2460,"由":2461,"申":2462,"电":2463,"男":2464,"画":2465,"界":2466,"畏":2467,"留":2468,"畜":2469,"略":2470,"番":2471,"異":2472,"當":2473,"疏":2474,"疑":2475,"疚":2476,"疫":2477,"疯":2478,"疾":2479,"病":2480,"痘":2481,"痛":2482,"瘋":2483,"瘤":2484,"瘦":2485,"療":2486,"発":2487,"登":2488,"發":2489,"白":2490,"百":2491,"的":2492,"皆":2493,"皇":2494,"皮":2495,"盆":2496,"益":2497,"监":2498,"盖":2499,"盗":2500,"盘":2501,"盛":2502,"盟":2503,"盡":2504,"盤":2505,"目":2506,"直":2507,"相":2508,"省":2509,"看":2510,"県":2511,"真":2512,"眼":2513,"眾":2514,"着":2515,"睡":2516,"督":2517,"瞞":2518,"瞧":2519,"瞬":2520,"矚":2521,"知":2522,"石":2523,"研":2524,"砕":2525,"砲":2526,"破":2527,"砸":2528,"硬":2529,"确":2530,"碎":2531,"碟":2532,"確":2533,"碼":2534,"磅":2535,"示":2536,"礼":2537,"社":2538,"祈":2539,"祝":2540,"神":2541,"票":2542,"祸":2543,"禁":2544,"福":2545,"离":2546,"秀":2547,"私":2548,"秋":2549,"种":2550,"科":2551,"秘":2552,"积":2553,"称":2554,"移":2555,"程":2556,"稍":2557,"稚":2558,"稣":2559,"種":2560,"稼":2561,"稿":2562,"積":2563,"究":2564,"穷":2565,"空":2566,"穿":2567,"突":2568,"窃":2569,"窝":2570,"窮":2571,"立":2572,"站":2573,"竞":2574,"竟":2575,"章":2576,"童":2577,"端":2578,"競":2579,"笑":2580,"符":2581,"第":2582,"筆":2583,"等":2584,"筒":2585,"答":2586,"策":2587,"签":2588,"简":2589,"箇":2590,"算":2591,"管":2592,"箭":2593,"節":2594,"篡":2595,"篤":2596,"簡":2597,"簧":2598,"簽":2599,"簿":2600,"籌":2601,"籲":2602,"米":2603,"类":2604,"粉":2605,"粤":2606,"粪":2607,"粹":2608,"精":2609,"系":2610,"紀":2611,"約":2612,"紅":2613,"納":2614,"純":2615,"紙":2616,"素":2617,"索":2618,"紧":2619,"細":2620,"紹":2621,"終":2622,"組":2623,"経":2624,"結":2625,"絕":2626,"絡":2627,"給":2628,"統":2629,"絶":2630,"經":2631,"継":2632,"綜":2633,"維":2634,"網":2635,"緊":2636,"緒":2637,"線":2638,"編":2639,"緩":2640,"縄":2641,"縱":2642,"總":2643,"繋":2644,"織":2645,"繞":2646,"繰":2647,"續":2648,"纠":2649,"红":2650,"约":2651,"级":2652,"纪":2653,"纯":2654,"纱":2655,"纳":2656,"纵":2657,"纷":2658,"纹":2659,"纽":2660,"线":2661,"组":2662,"细":2663,"织":2664,"终":2665,"绍":2666,"经":2667,"结":2668,"给":2669,"绝":2670,"统":2671,"继":2672,"续":2673,"维":2674,"缘":2675,"缠":2676,"网":2677,"罗":2678,"罚":2679,"罢":2680,"罪":2681,"置":2682,"罰":2683,"署":2684,"美":2685,"群":2686,"義":2687,"翁":2688,"翌":2689,"習":2690,"翰":2691,"翻":2692,"耀":2693,"老":2694,"考":2695,"者":2696,"而":2697,"耶":2698,"耻":2699,"职":2700,"联":2701,"聖":2702,"聚":2703,"聞":2704,"聯":2705,"聲":2706,"職":2707,"聽":2708,"肆":2709,"股":2710,"肮":2711,"肯":2712,"育":2713,"肺":2714,"胀":2715,"胆":2716,"背":2717,"胎":2718,"胜":2719,"胞":2720,"能":2721,"脅":2722,"脆":2723,"脊":2724,"脏":2725,"脑":2726,"脱":2727,"脳":2728,"脸":2729,"腐":2730,"腦":2731,"腰":2732,"腾":2733,"膨":2734,"膽":2735,"臉":2736,"臓":2737,"臣":2738,"臨":2739,"自":2740,"至":2741,"致":2742,"與":2743,"舉":2744,"舊":2745,"舌":2746,"舞":2747,"舟":2748,"航":2749,"般":2750,"舰":2751,"艇":2752,"良":2753,"艱":2754,"色":2755,"艳":2756,"节":2757,"芝":2758,"芯":2759,"花":2760,"苏":2761,"苗":2762,"若":2763,"苦":2764,"英":2765,"茂":2766,"范":2767,"茨":2768,"茬":2769,"茶":2770,"荡":2771,"荣":2772,"药":2773,"莉":2774,"莊":2775,"莱":2776,"获":2777,"菅":2778,"菊":2779,"華":2780,"萨":2781,"萬":2782,"落":2783,"葉":2784,"著":2785,"董":2786,"葬":2787,"蒙":2788,"蓄":2789,"蓋":2790,"蓝":2791,"蓬":2792,"蔡":2793,"蔽":2794,"薬":2795,"藍":2796,"藏":2797,"藥":2798,"虎":2799,"虏":2800,"虐":2801,"處":2802,"虚":2803,"號":2804,"虹":2805,"蚁":2806,"蚂":2807,"蛆":2808,"蛋":2809,"蛤":2810,"蝕":2811,"融":2812,"血":2813,"衆":2814,"行":2815,"術":2816,"衔":2817,"街":2818,"衛":2819,"衡":2820,"衣":2821,"表":2822,"衰":2823,"袋":2824,"袖":2825,"被":2826,"袭":2827,"裁":2828,"裂":2829,"装":2830,"裏":2831,"裕":2832,"補":2833,"裡":2834,"裴":2835,"製":2836,"複":2837,"褒":2838,"西":2839,"要":2840,"覆":2841,"覇":2842,"見":2843,"規":2844,"視":2845,"覚":2846,"覧":2847,"親":2848,"観":2849,"覺":2850,"觀":2851,"见":2852,"观":2853,"视":2854,"览":2855,"觉":2856,"角":2857,"解":2858,"触":2859,"觸":2860,"言":2861,"計":2862,"訊":2863,"託":2864,"記":2865,"訟":2866,"訪":2867,"設":2868,"許":2869,"訳":2870,"訴":2871,"註":2872,"証":2873,"評":2874,"詢":2875,"試":2876,"詮":2877,"詰":2878,"話":2879,"該":2880,"詳":2881,"認":2882,"誓":2883,"語":2884,"誤":2885,"說":2886,"説":2887,"読":2888,"誰":2889,"課":2890,"調":2891,"談":2892,"請":2893,"諒":2894,"論":2895,"諦":2896,"諮":2897,"諾":2898,"謀":2899,"謂":2900,"謊":2901,"講":2902,"謝":2903,"謠":2904,"證":2905,"識":2906,"警":2907,"譯":2908,"議":2909,"護":2910,"變":2911,"讚":2912,"计":2913,"订":2914,"认":2915,"让":2916,"训":2917,"议":2918,"记":2919,"讶":2920,"许":2921,"论":2922,"讼":2923,"访":2924,"证":2925,"评":2926,"识":2927,"诈":2928,"诉":2929,"词":2930,"译":2931,"话":2932,"诞":2933,"该":2934,"语":2935,"诱":2936,"说":2937,"请":2938,"诸":2939,"诺":2940,"读":2941,"谁":2942,"调":2943,"谈":2944,"谋":2945,"谍":2946,"谎":2947,"谓":2948,"谢":2949,"谣":2950,"象":2951,"貌":2952,"貓":2953,"負":2954,"財":2955,"貨":2956,"責":2957,"貯":2958,"貰":2959,"貴":2960,"買":2961,"貸":2962,"費":2963,"賀":2964,"資":2965,"賊":2966,"賠":2967,"賣":2968,"質":2969,"賬":2970,"賭":2971,"财":2972,"败":2973,"账":2974,"货":2975,"质":2976,"贩":2977,"贫":2978,"贬":2979,"贵":2980,"贸":2981,"费":2982,"贺":2983,"贼":2984,"贿":2985,"赂":2986,"资":2987,"赏":2988,"赖":2989,"赞":2990,"赢":2991,"赤":2992,"赦":2993,"走":2994,"赵":2995,"赶":2996,"起":2997,"超":2998,"越":2999,"趣":3000,"足":3001,"跃":3002,"跑":3003,"距":3004,"跟":3005,"跡":3006,"路":3007,"跳":3008,"踏":3009,"踪":3010,"蹂":3011,"蹬":3012,"躏":3013,"身":3014,"躲":3015,"車":3016,"軍":3017,"軟":3018,"転":3019,"載":3020,"輝":3021,"车":3022,"转":3023,"软":3024,"轰":3025,"轶":3026,"轻":3027,"载":3028,"较":3029,"辆":3030,"辉":3031,"输":3032,"辛":3033,"辞":3034,"边":3035,"込":3036,"达":3037,"迅":3038,"过":3039,"迈":3040,"迎":3041,"运":3042,"近":3043,"返":3044,"还":3045,"这":3046,"进":3047,"远":3048,"违":3049,"连":3050,"迟":3051,"迪":3052,"迫":3053,"述":3054,"迷":3055,"追":3056,"退":3057,"送":3058,"逃":3059,"逆":3060,"选":3061,"透":3062,"逐":3063,"递":3064,"途":3065,"這":3066,"通":3067,"速":3068,"造":3069,"連":3070,"逮":3071,"週":3072,"進":3073,"逼":3074,"遅":3075,"遍":3076,"過":3077,"道":3078,"達":3079,"違":3080,"遠":3081,"適":3082,"遭":3083,"遵":3084,"選":3085,"遺":3086,"避":3087,"邀":3088,"還":3089,"邊":3090,"那":3091,"邦":3092,"邪":3093,"邮":3094,"邱":3095,"郎":3096,"郑":3097,"部":3098,"郭":3099,"郵":3100,"都":3101,"酌":3102,"配":3103,"酒":3104,"酣":3105,"酵":3106,"酷":3107,"酸":3108,"醒":3109,"釁":3110,"采":3111,"釈":3112,"里":3113,"重":3114,"野":3115,"量":3116,"金":3117,"銘":3118,"錄":3119,"錢":3120,"錯":3121,"録":3122,"鍋":3123,"鏡":3124,"鐵":3125,"钥":3126,"钩":3127,"钱":3128,"铁":3129,"铺":3130,"链":3131,"销":3132,"锁":3133,"锅":3134,"锋":3135,"锡":3136,"锤":3137,"锦":3138,"键":3139,"長":3140,"长":3141,"門":3142,"閆":3143,"開":3144,"間":3145,"関":3146,"閣":3147,"閥":3148,"閲":3149,"闘":3150,"關":3151,"门":3152,"闫":3153,"闭":3154,"问":3155,"间":3156,"闹":3157,"闻":3158,"阅":3159,"队":3160,"阱":3161,"防":3162,"阴":3163,"阵":3164,"阶":3165,"阻":3166,"阿":3167,"附":3168,"际":3169,"陆":3170,"陈":3171,"陋":3172,"降":3173,"限":3174,"院":3175,"除":3176,"陥":3177,"险":3178,"陪":3179,"陷":3180,"陸":3181,"険":3182,"陽":3183,"隆":3184,"隊":3185,"階":3186,"随":3187,"隔":3188,"際":3189,"障":3190,"隠":3191,"隣":3192,"隧":3193,"隨":3194,"險":3195,"难":3196,"雄":3197,"雅":3198,"集":3199,"雖":3200,"雙":3201,"雞":3202,"離":3203,"難":3204,"雷":3205,"電":3206,"需":3207,"震":3208,"露":3209,"霸":3210,"青":3211,"靖":3212,"靜":3213,"非":3214,"靠":3215,"面":3216,"革":3217,"音":3218,"響":3219,"頂":3220,"項":3221,"順":3222,"須":3223,"預":3224,"頑":3225,"領":3226,"頭":3227,"頻":3228,"頼":3229,"題":3230,"額":3231,"願":3232,"類":3233,"顧":3234,"顯":3235,"顶":3236,"顺":3237,"须":3238,"顾":3239,"顿":3240,"预":3241,"领":3242,"频":3243,"题":3244,"颠":3245,"颤":3246,"風":3247,"风":3248,"飛":3249,"飞":3250,"食":3251,"飯":3252,"飲":3253,"飽":3254,"飾":3255,"養":3256,"館":3257,"饭":3258,"首":3259,"香":3260,"馬":3261,"駅":3262,"駐":3263,"駕":3264,"騒":3265,"騙":3266,"驗":3267,"马":3268,"驱":3269,"驻":3270,"骇":3271,"验":3272,"骨":3273,"骯":3274,"髄":3275,"髒":3276,"體":3277,"高":3278,"鬼":3279,"魂":3280,"魔":3281,"鮑":3282,"鱷":3283,"鲁":3284,"鲍":3285,"鳄":3286,"鳳":3287,"鷲":3288,"鹰":3289,"麗":3290,"麥":3291,"麦":3292,"麻":3293,"麼":3294,"黃":3295,"黄":3296,"黑":3297,"黒":3298,"點":3299,"黨":3300,"鼓":3301,"鼻":3302,"齊":3303,"齒":3304,"齢":3305,"齿":3306,"龄":3307,"龊":3308,"龌":3309,"龍":3310,"龐":3311,"龙":3312,"ꉂ":3313,"꓃":3314,"ꜰ":3315,"ꜱ":3316,"ꟼ":3317,"꧁":3318,"꧂":3319,"ꪑ":3320,"ꪖ":3321,"ꫀ":3322,"ꫝ":3323,"같":3324,"것":3325,"고":3326,"그":3327,"글":3328,"기":3329,"나":3330,"네":3331,"년":3332,"는":3333,"다":3334,"당":3335,"도":3336,"동":3337,"럿":3338,"로":3339,"리":3340,"린":3341,"맹":3342,"몰":3343,"무":3344,"미":3345,"버":3346,"블":3347,"사":3348,"세":3349,"쇼":3350,"스":3351,"시":3352,"신":3353,"실":3354,"썅":3355,"아":3356,"않":3357,"어":3358,"얼":3359,"엠":3360,"왕":3361,"요":3362,"용":3363,"웨":3364,"으":3365,"은":3366,"의":3367,"이":3368,"자":3369,"정":3370,"종":3371,"지":3372,"찾":3373,"체":3374,"템":3375,"페":3376,"프":3377,"핑":3378,"하":3379,"한":3380,"":3381,"ﭘ":3382,"ﭼ":3383,"ﮏ":3384,"ﮐ":3385,"ﮑ":3386,"ﮓ":3387,"ﮔ":3388,"ﮕ":3389,"ﮯ":3390,"﮼":3391,"ﯼ":3392,"ﯽ":3393,"ﯾ":3394,"ﯿ":3395,"﴾":3396,"﴿":3397,"ﷺ":3398,"﷽":3399,"︎":3400,"️":3401,"︻":3402,"ﺁ":3403,"ﺃ":3404,"ﺍ":3405,"ﺎ":3406,"ﺏ":3407,"ﺑ":3408,"ﺒ":3409,"ﺓ":3410,"ﺕ":3411,"ﺖ":3412,"ﺗ":3413,"ﺘ":3414,"ﺜ":3415,"ﺟ":3416,"ﺠ":3417,"ﺣ":3418,"ﺤ":3419,"ﺧ":3420,"ﺨ":3421,"ﺩ":3422,"ﺪ":3423,"ﺭ":3424,"ﺮ":3425,"ﺯ":3426,"ﺰ":3427,"ﺱ":3428,"ﺳ":3429,"ﺴ":3430,"ﺵ":3431,"ﺶ":3432,"ﺷ":3433,"ﺸ":3434,"ﺺ":3435,"ﺻ":3436,"ﺾ":3437,"ﻀ":3438,"ﻂ":3439,"ﻃ":3440,"ﻄ":3441,"ﻈ":3442,"ﻊ":3443,"ﻋ":3444,"ﻌ":3445,"ﻏ":3446,"ﻒ":3447,"ﻓ":3448,"ﻔ":3449,"ﻗ":3450,"ﻘ":3451,"ﻙ":3452,"ﻚ":3453,"ﻛ":3454,"ﻝ":3455,"ﻞ":3456,"ﻟ":3457,"ﻠ":3458,"ﻡ":3459,"ﻢ":3460,"ﻣ":3461,"ﻤ":3462,"ﻥ":3463,"ﻦ":3464,"ﻧ":3465,"ﻨ":3466,"ﻩ":3467,"ﻪ":3468,"ﻫ":3469,"ﻬ":3470,"ﻭ":3471,"ﻮ":3472,"ﻲ":3473,"ﻳ":3474,"ﻴ":3475,"ﻻ":3476,"ﻼ":3477,"﻿":3478,"！":3479,"％":3480,"（":3481,"）":3482,"＊":3483,"＋":3484,"，":3485,"１":3486,"３":3487,"：":3488,"；":3489,"＜":3490,"＝":3491,"＞":3492,"？":3493,"Ａ":3494,"Ｂ":3495,"Ｃ":3496,"Ｅ":3497,"Ｉ":3498,"Ｋ":3499,"Ｌ":3500,"Ｎ":3501,"Ｐ":3502,"Ｒ":3503,"Ｓ":3504,"Ｔ":3505,"Ｕ":3506,"［":3507,"］":3508,"ｗ":3509,"～":3510,"｡":3511,"｢":3512,"｣":3513,"￼":3514,"𝐀":3515,"𝐁":3516,"𝐂":3517,"𝐃":3518,"𝐄":3519,"𝐅":3520,"𝐆":3521,"𝐇":3522,"𝐈":3523,"𝐊":3524,"𝐋":3525,"𝐌":3526,"𝐍":3527,"𝐎":3528,"𝐏":3529,"𝐑":3530,"𝐒":3531,"𝐓":3532,"𝐔":3533,"𝐕":3534,"𝐖":3535,"𝐘":3536,"𝐚":3537,"𝐛":3538,"𝐜":3539,"𝐝":3540,"𝐞":3541,"𝐟":3542,"𝐠":3543,"𝐡":3544,"𝐢":3545,"𝐣":3546,"𝐤":3547,"𝐥":3548,"𝐦":3549,"𝐧":3550,"𝐨":3551,"𝐩":3552,"𝐫":3553,"𝐬":3554,"𝐭":3555,"𝐮":3556,"𝐯":3557,"𝐰":3558,"𝐱":3559,"𝐲":3560,"𝐳":3561,"𝐶":3562,"𝐹":3563,"𝐻":3564,"𝐼":3565,"𝑃":3566,"𝑇":3567,"𝑎":3568,"𝑐":3569,"𝑑":3570,"𝑒":3571,"𝑓":3572,"𝑔":3573,"𝑖":3574,"𝑘":3575,"𝑙":3576,"𝑛":3577,"𝑜":3578,"𝑝":3579,"𝑟":3580,"𝑠":3581,"𝑡":3582,"𝑢":3583,"𝑤":3584,"𝑥":3585,"𝑦":3586,"𝑨":3587,"𝑫":3588,"𝑬":3589,"𝑰":3590,"𝑳":3591,"𝑴":3592,"𝑷":3593,"𝑹":3594,"𝑻":3595,"𝑽":3596,"𝒁":3597,"𝒂":3598,"𝒃":3599,"𝒄":3600,"𝒅":3601,"𝒆":3602,"𝒇":3603,"𝒈":3604,"𝒉":3605,"𝒊":3606,"𝒌":3607,"𝒍":3608,"𝒏":3609,"𝒐":3610,"𝒑":3611,"𝒓":3612,"𝒔":3613,"𝒕":3614,"𝒖":3615,"𝒗":3616,"𝒘":3617,"𝒚":3618,"𝒢":3619,"𝒮":3620,"𝒯":3621,"𝒶":3622,"𝒸":3623,"𝒽":3624,"𝓇":3625,"𝓊":3626,"𝓐":3627,"𝓑":3628,"𝓒":3629,"𝓓":3630,"𝓔":3631,"𝓗":3632,"𝓘":3633,"𝓙":3634,"𝓛":3635,"𝓜":3636,"𝓝":3637,"𝓞":3638,"𝓟":3639,"𝓠":3640,"𝓡":3641,"𝓢":3642,"𝓣":3643,"𝓤":3644,"𝓥":3645,"𝓨":3646,"𝓪":3647,"𝓫":3648,"𝓬":3649,"𝓭":3650,"𝓮":3651,"𝓯":3652,"𝓰":3653,"𝓱":3654,"𝓲":3655,"𝓴":3656,"𝓵":3657,"𝓶":3658,"𝓷":3659,"𝓸":3660,"𝓹":3661,"𝓻":3662,"𝓼":3663,"𝓽":3664,"𝓾":3665,"𝓿":3666,"𝔀":3667,"𝔁":3668,"𝔂":3669,"𝔓":3670,"𝔚":3671,"𝔢":3672,"𝔥":3673,"𝔩":3674,"𝔬":3675,"𝔭":3676,"𝔱":3677,"𝔸":3678,"𝔹":3679,"𝔻":3680,"𝔼":3681,"𝔽":3682,"𝔾":3683,"𝕀":3684,"𝕁":3685,"𝕂":3686,"𝕃":3687,"𝕄":3688,"𝕆":3689,"𝕊":3690,"𝕋":3691,"𝕌":3692,"𝕍":3693,"𝕎":3694,"𝕐":3695,"𝕒":3696,"𝕓":3697,"𝕔":3698,"𝕕":3699,"𝕖":3700,"𝕗":3701,"𝕘":3702,"𝕙":3703,"𝕚":3704,"𝕜":3705,"𝕝":3706,"𝕞":3707,"𝕟":3708,"𝕠":3709,"𝕡":3710,"𝕣":3711,"𝕤":3712,"𝕥":3713,"𝕦":3714,"𝕧":3715,"𝕨":3716,"𝕪":3717,"𝖆":3718,"𝖍":3719,"𝖔":3720,"𝖜":3721,"𝗔":3722,"𝗕":3723,"𝗖":3724,"𝗗":3725,"𝗘":3726,"𝗙":3727,"𝗚":3728,"𝗛":3729,"𝗜":3730,"𝗝":3731,"𝗞":3732,"𝗟":3733,"𝗠":3734,"𝗡":3735,"𝗢":3736,"𝗣":3737,"𝗥":3738,"𝗦":3739,"𝗧":3740,"𝗨":3741,"𝗩":3742,"𝗪":3743,"𝗫":3744,"𝗬":3745,"𝗮":3746,"𝗯":3747,"𝗰":3748,"𝗱":3749,"𝗲":3750,"𝗳":3751,"𝗴":3752,"𝗵":3753,"𝗶":3754,"𝗷":3755,"𝗸":3756,"𝗹":3757,"𝗺":3758,"𝗻":3759,"𝗼":3760,"𝗽":3761,"𝗿":3762,"𝘀":3763,"𝘁":3764,"𝘂":3765,"𝘃":3766,"𝘄":3767,"𝘆":3768,"𝘈":3769,"𝘋":3770,"𝘎":3771,"𝘗":3772,"𝘛":3773,"𝘢":3774,"𝘣":3775,"𝘤":3776,"𝘥":3777,"𝘦":3778,"𝘧":3779,"𝘨":3780,"𝘩":3781,"𝘪":3782,"𝘬":3783,"𝘭":3784,"𝘮":3785,"𝘯":3786,"𝘰":3787,"𝘱":3788,"𝘳":3789,"𝘴":3790,"𝘵":3791,"𝘶":3792,"𝘷":3793,"𝘸":3794,"𝘺":3795,"𝘼":3796,"𝘽":3797,"𝘾":3798,"𝘿":3799,"𝙀":3800,"𝙁":3801,"𝙂":3802,"𝙃":3803,"𝙄":3804,"𝙅":3805,"𝙆":3806,"𝙇":3807,"𝙈":3808,"𝙉":3809,"𝙊":3810,"𝙋":3811,"𝙍":3812,"𝙎":3813,"𝙏":3814,"𝙐":3815,"𝙑":3816,"𝙒":3817,"𝙔":3818,"𝙖":3819,"𝙗":3820,"𝙘":3821,"𝙙":3822,"𝙚":3823,"𝙛":3824,"𝙜":3825,"𝙝":3826,"𝙞":3827,"𝙟":3828,"𝙠":3829,"𝙡":3830,"𝙢":3831,"𝙣":3832,"𝙤":3833,"𝙥":3834,"𝙧":3835,"𝙨":3836,"𝙩":3837,"𝙪":3838,"𝙫":3839,"𝙬":3840,"𝙮":3841,"𝙯":3842,"𝙰":3843,"𝙱":3844,"𝙲":3845,"𝙵":3846,"𝙻":3847,"𝙼":3848,"𝙽":3849,"𝙾":3850,"𝚃":3851,"𝚅":3852,"𝚈":3853,"𝚊":3854,"𝚋":3855,"𝚌":3856,"𝚍":3857,"𝚎":3858,"𝚏":3859,"𝚐":3860,"𝚑":3861,"𝚒":3862,"𝚓":3863,"𝚔":3864,"𝚕":3865,"𝚖":3866,"𝚗":3867,"𝚘":3868,"𝚙":3869,"𝚛":3870,"𝚜":3871,"𝚝":3872,"𝚞":3873,"𝚟":3874,"𝚠":3875,"𝚢":3876,"𝟎":3877,"𝟏":3878,"𝟐":3879,"𝟑":3880,"𝟒":3881,"𝟗":3882,"𝟘":3883,"𝟚":3884,"𝟛":3885,"𝟜":3886,"𝟟":3887,"𝟬":3888,"𝟭":3889,"𝟮":3890,"𝟰":3891,"𝟲":3892,"𝟳":3893,"𝟷":3894,"𝟸":3895,"𝟼":3896,"🀄":3897,"🃏":3898,"🄰":3899,"🄳":3900,"🄵":3901,"🄶":3902,"🄸":3903,"🄽":3904,"🅀":3905,"🅁":3906,"🅂":3907,"🅄":3908,"🅰":3909,"🅱":3910,"🅲":3911,"🅳":3912,"🅴":3913,"🅶":3914,"🅷":3915,"🅸":3916,"🅻":3917,"🅽":3918,"🅾":3919,"🅿":3920,"🆁":3921,"🆂":3922,"🆄":3923,"🆅":3924,"🆎":3925,"🆓":3926,"🆔":3927,"🆗":3928,"🆘":3929,"🆙":3930,"🆚":3931,"🇦":3932,"🇧":3933,"🇨":3934,"🇩":3935,"🇪":3936,"🇫":3937,"🇬":3938,"🇭":3939,"🇮":3940,"🇯":3941,"🇰":3942,"🇱":3943,"🇲":3944,"🇳":3945,"🇴":3946,"🇵":3947,"🇶":3948,"🇷":3949,"🇸":3950,"🇹":3951,"🇺":3952,"🇻":3953,"🇼":3954,"🇽":3955,"🇾":3956,"🇿":3957,"🌀":3958,"🌃":3959,"🌄":3960,"🌅":3961,"🌆":3962,"🌈":3963,"🌉":3964,"🌊":3965,"🌋":3966,"🌌":3967,"🌍":3968,"🌎":3969,"🌏":3970,"🌐":3971,"🌑":3972,"🌒":3973,"🌓":3974,"🌔":3975,"🌕":3976,"🌖":3977,"🌗":3978,"🌘":3979,"🌙":3980,"🌚":3981,"🌝":3982,"🌞":3983,"🌟":3984,"🌠":3985,"🌡":3986,"🌤":3987,"🌧":3988,"🌨":3989,"🌩":3990,"🌪":3991,"🌬":3992,"🌭":3993,"🌮":3994,"🌰":3995,"🌱":3996,"🌲":3997,"🌳":3998,"🌴":3999,"🌵":4000,"🌶":4001,"🌷":4002,"🌸":4003,"🌹":4004,"🌺":4005,"🌻":4006,"🌼":4007,"🌽":4008,"🌾":4009,"🌿":4010,"🍀":4011,"🍁":4012,"🍂":4013,"🍃":4014,"🍄":4015,"🍅":4016,"🍆":4017,"🍇":4018,"🍉":4019,"🍊":4020,"🍋":4021,"🍌":4022,"🍍":4023,"🍎":4024,"🍏":4025,"🍐":4026,"🍑":4027,"🍒":4028,"🍓":4029,"🍔":4030,"🍕":4031,"🍖":4032,"🍗":4033,"🍛":4034,"🍝":4035,"🍞":4036,"🍟":4037,"🍣":4038,"🍤":4039,"🍦":4040,"🍧":4041,"🍨":4042,"🍩":4043,"🍪":4044,"🍫":4045,"🍬":4046,"🍭":4047,"🍯":4048,"🍰":4049,"🍲":4050,"🍳":4051,"🍴":4052,"🍷":4053,"🍸":4054,"🍹":4055,"🍺":4056,"🍻":4057,"🍼":4058,"🍽":4059,"🍾":4060,"🍿":4061,"🎀":4062,"🎁":4063,"🎂":4064,"🎃":4065,"🎄":4066,"🎅":4067,"🎆":4068,"🎇":4069,"🎈":4070,"🎉":4071,"🎊":4072,"🎋":4073,"🎎":4074,"🎒":4075,"🎓":4076,"🎖":4077,"🎗":4078,"🎙":4079,"🎚":4080,"🎞":4081,"🎟":4082,"🎠":4083,"🎡":4084,"🎢":4085,"🎣":4086,"🎤":4087,"🎥":4088,"🎧":4089,"🎨":4090,"🎩":4091,"🎪":4092,"🎬":4093,"🎭":4094,"🎮":4095,"🎯":4096,"🎰":4097,"🎱":4098,"🎲":4099,"🎵":4100,"🎶":4101,"🎷":4102,"🎸":4103,"🎺":4104,"🎻":4105,"🎼":4106,"🎾":4107,"🎿":4108,"🏀":4109,"🏁":4110,"🏂":4111,"🏃":4112,"🏄":4113,"🏅":4114,"🏆":4115,"🏇":4116,"🏈":4117,"🏉":4118,"🏊":4119,"🏋":4120,"🏌":4121,"🏍":4122,"🏎":4123,"🏏":4124,"🏐":4125,"🏒":4126,"🏓":4127,"🏔":4128,"🏕":4129,"🏖":4130,"🏗":4131,"🏛":4132,"🏝":4133,"🏞":4134,"🏟":4135,"🏠":4136,"🏡":4137,"🏢":4138,"🏤":4139,"🏥":4140,"🏦":4141,"🏫":4142,"🏬":4143,"🏭":4144,"🏰":4145,"🏳":4146,"🏴":4147,"🏵":4148,"🏷":4149,"🏹":4150,"🏺":4151,"🏻":4152,"🏼":4153,"🏽":4154,"🏾":4155,"🏿":4156,"🐀":4157,"🐁":4158,"🐂":4159,"🐃":4160,"🐄":4161,"🐅":4162,"🐆":4163,"🐇":4164,"🐈":4165,"🐉":4166,"🐊":4167,"🐌":4168,"🐍":4169,"🐎":4170,"🐏":4171,"🐐":4172,"🐑":4173,"🐒":4174,"🐓":4175,"🐔":4176,"🐕":4177,"🐖":4178,"🐗":4179,"🐘":4180,"🐙":4181,"🐛":4182,"🐜":4183,"🐝":4184,"🐟":4185,"🐠":4186,"🐢":4187,"🐣":4188,"🐤":4189,"🐥":4190,"🐦":4191,"🐧":4192,"🐨":4193,"🐩":4194,"🐪":4195,"🐫":4196,"🐬":4197,"🐮":4198,"🐯":4199,"🐰":4200,"🐱":4201,"🐲":4202,"🐳":4203,"🐴":4204,"🐵":4205,"🐶":4206,"🐷":4207,"🐸":4208,"🐺":4209,"🐻":4210,"🐽":4211,"🐾":4212,"🐿":4213,"👀":4214,"👁":4215,"👂":4216,"👃":4217,"👄":4218,"👅":4219,"👆":4220,"👇":4221,"👈":4222,"👉":4223,"👊":4224,"👋":4225,"👌":4226,"👍":4227,"👎":4228,"👏":4229,"👐":4230,"👑":4231,"👒":4232,"👓":4233,"👔":4234,"👖":4235,"👗":4236,"👘":4237,"👙":4238,"👛":4239,"👜":4240,"👞":4241,"👟":4242,"👠":4243,"👡":4244,"👢":4245,"👣":4246,"👤":4247,"👥":4248,"👦":4249,"👧":4250,"👨":4251,"👩":4252,"👪":4253,"👫":4254,"👬":4255,"👭":4256,"👮":4257,"👯":4258,"👰":4259,"👱":4260,"👲":4261,"👳":4262,"👴":4263,"👵":4264,"👶":4265,"👷":4266,"👸":4267,"👹":4268,"👺":4269,"👻":4270,"👼":4271,"👽":4272,"👾":4273,"👿":4274,"💀":4275,"💁":4276,"💂":4277,"💃":4278,"💄":4279,"💅":4280,"💆":4281,"💇":4282,"💉":4283,"💊":4284,"💋":4285,"💌":4286,"💍":4287,"💎":4288,"💏":4289,"💐":4290,"💑":4291,"💒":4292,"💓":4293,"💔":4294,"💕":4295,"💖":4296,"💗":4297,"💘":4298,"💙":4299,"💚":4300,"💛":4301,"💜":4302,"💝":4303,"💞":4304,"💟":4305,"💠":4306,"💡":4307,"💢":4308,"💣":4309,"💤":4310,"💥":4311,"💦":4312,"💧":4313,"💨":4314,"💩":4315,"💪":4316,"💫":4317,"💬":4318,"💭":4319,"💯":4320,"💰":4321,"💲":4322,"💳":4323,"💴":4324,"💵":4325,"💶":4326,"💷":4327,"💸":4328,"💺":4329,"💻":4330,"💼":4331,"📁":4332,"📄":4333,"📈":4334,"📉":4335,"📊":4336,"📋":4337,"📌":4338,"📍":4339,"📎":4340,"📑":4341,"📔":4342,"📕":4343,"📖":4344,"📗":4345,"📘":4346,"📙":4347,"📚":4348,"📛":4349,"📜":4350,"📝":4351,"📞":4352,"📡":4353,"📢":4354,"📣":4355,"📤":4356,"📥":4357,"📦":4358,"📧":4359,"📨":4360,"📩":4361,"📪":4362,"📫":4363,"📬":4364,"📭":4365,"📮":4366,"📯":4367,"📰":4368,"📱":4369,"📲":4370,"📳":4371,"📵":4372,"📷":4373,"📸":4374,"📹":4375,"📺":4376,"📻":4377,"📼":4378,"📽":4379,"📿":4380,"🔁":4381,"🔂":4382,"🔄":4383,"🔆":4384,"🔈":4385,"🔉":4386,"🔊":4387,"🔋":4388,"🔌":4389,"🔍":4390,"🔎":4391,"🔐":4392,"🔑":4393,"🔒":4394,"🔓":4395,"🔔":4396,"🔖":4397,"🔗":4398,"🔘":4399,"🔚":4400,"🔛":4401,"🔜":4402,"🔝":4403,"🔞":4404,"🔥":4405,"🔦":4406,"🔧":4407,"🔨":4408,"🔩":4409,"🔪":4410,"🔫":4411,"🔬":4412,"🔮":4413,"🔯":4414,"🔰":4415,"🔱":4416,"🔲":4417,"🔴":4418,"🔵":4419,"🔶":4420,"🔸":4421,"🔹":4422,"🔺":4423,"🔻":4424,"🔽":4425,"🕆":4426,"🕇":4427,"🕉":4428,"🕊":4429,"🕋":4430,"🕌":4431,"🕎":4432,"🕐":4433,"🕑":4434,"🕒":4435,"🕓":4436,"🕔":4437,"🕕":4438,"🕖":4439,"🕗":4440,"🕘":4441,"🕙":4442,"🕛":4443,"🕜":4444,"🕝":4445,"🕟":4446,"🕠":4447,"🕡":4448,"🕢":4449,"🕣":4450,"🕤":4451,"🕧":4452,"🕯":4453,"🕰":4454,"🕳":4455,"🕴":4456,"🕵":4457,"🕶":4458,"🕷":4459,"🕸":4460,"🕺":4461,"🖊":4462,"🖋":4463,"🖌":4464,"🖍":4465,"🖐":4466,"🖒":4467,"🖕":4468,"🖖":4469,"🖤":4470,"🖥":4471,"🖲":4472,"🖼":4473,"🗑":4474,"🗓":4475,"🗝":4476,"🗡":4477,"🗣":4478,"🗨":4479,"🗯":4480,"🗳":4481,"🗻":4482,"🗽":4483,"🗿":4484,"😀":4485,"😁":4486,"😂":4487,"😃":4488,"😄":4489,"😅":4490,"😆":4491,"😇":4492,"😈":4493,"😉":4494,"😊":4495,"😋":4496,"😌":4497,"😍":4498,"😎":4499,"😏":4500,"😐":4501,"😑":4502,"😒":4503,"😓":4504,"😔":4505,"😕":4506,"😖":4507,"😗":4508,"😘":4509,"😙":4510,"😚":4511,"😛":4512,"😜":4513,"😝":4514,"😞":4515,"😟":4516,"😠":4517,"😡":4518,"😢":4519,"😣":4520,"😤":4521,"😥":4522,"😦":4523,"😧":4524,"😨":4525,"😩":4526,"😪":4527,"😫":4528,"😬":4529,"😭":4530,"😮":4531,"😯":4532,"😰":4533,"😱":4534,"😲":4535,"😳":4536,"😴":4537,"😵":4538,"😶":4539,"😷":4540,"😸":4541,"😹":4542,"😺":4543,"😻":4544,"😼":4545,"😽":4546,"😾":4547,"😿":4548,"🙀":4549,"🙁":4550,"🙂":4551,"🙃":4552,"🙄":4553,"🙅":4554,"🙆":4555,"🙇":4556,"🙈":4557,"🙉":4558,"🙊":4559,"🙋":4560,"🙌":4561,"🙎":4562,"🙏":4563,"🚀":4564,"🚁":4565,"🚂":4566,"🚃":4567,"🚄":4568,"🚅":4569,"🚆":4570,"🚋":4571,"🚌":4572,"🚎":4573,"🚐":4574,"🚑":4575,"🚒":4576,"🚓":4577,"🚔":4578,"🚕":4579,"🚗":4580,"🚘":4581,"🚙":4582,"🚚":4583,"🚛":4584,"🚜":4585,"🚝":4586,"🚞":4587,"🚡":4588,"🚢":4589,"🚣":4590,"🚤":4591,"🚦":4592,"🚨":4593,"🚩":4594,"🚪":4595,"🚫":4596,"🚬":4597,"🚮":4598,"🚯":4599,"🚰":4600,"🚱":4601,"🚴":4602,"🚵":4603,"🚶":4604,"🚷":4605,"🚸":4606,"🚻":4607,"🚽":4608,"🚿":4609,"🛂":4610,"🛋":4611,"🛌":4612,"🛍":4613,"🛎":4614,"🛏":4615,"🛐":4616,"🛑":4617,"🛒":4618,"🛠":4619,"🛡":4620,"🛣":4621,"🛤":4622,"🛥":4623,"🛩":4624,"🛫":4625,"🛰":4626,"🛳":4627,"🛶":4628,"🛷":4629,"🛸":4630,"🛺":4631,"🟡":4632,"🟢":4633,"🟣":4634,"🟥":4635,"🟦":4636,"🟧":4637,"🟨":4638,"🟩":4639,"🟪":4640,"🤌":4641,"🤍":4642,"🤎":4643,"🤏":4644,"🤐":4645,"🤑":4646,"🤒":4647,"🤓":4648,"🤔":4649,"🤕":4650,"🤖":4651,"🤗":4652,"🤘":4653,"🤙":4654,"🤚":4655,"🤛":4656,"🤜":4657,"🤝":4658,"🤞":4659,"🤟":4660,"🤠":4661,"🤡":4662,"🤢":4663,"🤣":4664,"🤤":4665,"🤥":4666,"🤦":4667,"🤧":4668,"🤨":4669,"🤩":4670,"🤪":4671,"🤫":4672,"🤬":4673,"🤭":4674,"🤮":4675,"🤯":4676,"🤰":4677,"🤱":4678,"🤲":4679,"🤳":4680,"🤴":4681,"🤵":4682,"🤶":4683,"🤷":4684,"🤸":4685,"🤺":4686,"🤼":4687,"🥀":4688,"🥁":4689,"🥂":4690,"🥃":4691,"🥄":4692,"🥅":4693,"🥇":4694,"🥉":4695,"🥊":4696,"🥋":4697,"🥌":4698,"🥑":4699,"🥒":4700,"🥓":4701,"🥔":4702,"🥕":4703,"🥖":4704,"🥗":4705,"🥘":4706,"🥙":4707,"🥚":4708,"🥛":4709,"🥜":4710,"🥞":4711,"🥟":4712,"🥣":4713,"🥤":4714,"🥦":4715,"🥧":4716,"🥨":4717,"🥩":4718,"🥪":4719,"🥬":4720,"🥭":4721,"🥯":4722,"🥰":4723,"🥱":4724,"🥲":4725,"🥳":4726,"🥴":4727,"🥵":4728,"🥶":4729,"🥸":4730,"🥺":4731,"🥼":4732,"🥽":4733,"🥾":4734,"🦀":4735,"🦁":4736,"🦂":4737,"🦃":4738,"🦄":4739,"🦅":4740,"🦆":4741,"🦇":4742,"🦈":4743,"🦉":4744,"🦊":4745,"🦋":4746,"🦌":4747,"🦍":4748,"🦎":4749,"🦏":4750,"🦐":4751,"🦑":4752,"🦓":4753,"🦕":4754,"🦖":4755,"🦗":4756,"🦘":4757,"🦚":4758,"🦜":4759,"🦞":4760,"🦟":4761,"🦠":4762,"🦡":4763,"🦢":4764,"🦦":4765,"🦧":4766,"🦨":4767,"🦫":4768,"🦬":4769,"🦮":4770,"🦯":4771,"🦰":4772,"🦱":4773,"🦲":4774,"🦳":4775,"🦴":4776,"🦵":4777,"🦶":4778,"🦷":4779,"🦸":4780,"🦹":4781,"🦺":4782,"🦻":4783,"🦽":4784,"🦾":4785,"🧀":4786,"🧁":4787,"🧂":4788,"🧃":4789,"🧅":4790,"🧈":4791,"🧉":4792,"🧋":4793,"🧍":4794,"🧎":4795,"🧏":4796,"🧐":4797,"🧑":4798,"🧒":4799,"🧔":4800,"🧕":4801,"🧖":4802,"🧗":4803,"🧘":4804,"🧙":4805,"🧚":4806,"🧛":4807,"🧜":4808,"🧝":4809,"🧞":4810,"🧟":4811,"🧠":4812,"🧡":4813,"🧢":4814,"🧦":4815,"🧨":4816,"🧩":4817,"🧪":4818,"🧫":4819,"🧬":4820,"🧮":4821,"🧱":4822,"🧲":4823,"🧳":4824,"🧵":4825,"🧶":4826,"🧸":4827,"🧹":4828,"🧺":4829,"🧻":4830,"🧼":4831,"🧽":4832,"🧿":4833,"🩰":4834,"🩱":4835,"🩸":4836,"🩹":4837,"🩺":4838,"🪃":4839,"🪄":4840,"🪐":4841,"🪑":4842,"🪓":4843,"🪔":4844,"🪕":4845,"🪖":4846,"🪝":4847,"🪣":4848,"🪦":4849,"🪨":4850,"🪰":4851,"🪳":4852,"🫀":4853,"󠁢":4854,"󠁣":4855,"󠁥":4856,"󠁧":4857,"󠁬":4858,"󠁮":4859,"󠁳":4860,"󠁴":4861,"󠁷":4862,"󠁿":4863,"󾓪":4864,"th":4865,"in":4866,"an":4867,"er":4868,"the":4869,"on":4870,"re":4871,"ou":4872,"at":4873,"is":4874,"en":4875,"or":4876,"ing":4877,"to":4878,"ll":4879,"es":4880,"ed":4881,"it":4882,"and":4883,"st":4884,"ar":4885,"le":4886,"as":4887,"he":4888,"..":4889,"ic":4890,"al":4891,"of":4892,"ot":4893,"be":4894,"om":4895,"id":4896,"ow":4897,"se":4898,"ve":4899,"you":4900,"ac":4901,"for":4902,"ti":4903,"ha":4904,"all":4905,"ru":4906,"ay":4907,"wh":4908,"!!":4909,"wi":4910,"are":4911,"ver":4912,"li":4913,"ent":4914,"that":4915,"ld":4916,"am":4917,"ke":4918,"ch":4919,"ad":4920,"ly":4921,"op":4922,"ig":4923,"ne":4924,"em":4925,"et":4926,"The":4927,"Th":4928,"we":4929,"ut":4930,"lo":4931,"ir":4932,"mp":4933,"un":4934,"ere":4935,"ion":4936,"they":4937,"out":4938,"sh":4939,"this":4940,"tr":4941,"ter":4942,"do":4943,"pe":4944,"me":4945,"ag":4946,"one":4947,"up":4948,"ab":4949,"us":4950,"ol":4951,"pr":4952,"go":4953,"have":4954,"res":4955,"not":4956,"with":4957,"od":4958,"ht":4959,"ould":4960,"rump":4961,"tion":4962,"our":4963,"ust":4964,"com":4965,"ur":4966,"so":4967,"de":4968,"ist":4969,"ce":4970,"fr":4971,"will":4972,"...":4973,"ate":4974,"au":4975,"mo":4976,"cr":4977,"oun":4978,"ers":4979,"now":4980,"con":4981,"il":4982,"Trump":4983,"im":4984,"ill":4985,"ight":4986,"ck":4987,"ess":4988,"can":4989,"was":4990,"20":4991,"no":4992,"🇺🇸":4993,"if":4994,"ople":4995,"Wh":4996,"any":4997,"your":4998,"ant":4999,"ain":5000,"thing":5001,"po":5002,"ack":5003,"We":5004,"ep":5005,"ation":5006,"get":5007,"ome":5008,"ake":5009,"people":5010,"ther":5011,"هه":5012,"bl":5013,"wor":5014,"Am":5015,"them":5016,"art":5017,"ct":5018,"fe":5019,"est":5020,"my":5021,"their":5022,"what":5023,"iden":5024,"eric":5025,"but":5026,"like":5027,"just":5028,"It":5029,"ally":5030,"ul":5031,"ap":5032,"ok":5033,"very":5034,"su":5035,"He":5036,"end":5037,"pl":5038,"TH":5039,"from":5040,"ak":5041,"ri":5042,"own":5043,"don":5044,"Americ":5045,"ex":5046,"vot":5047,"has":5048,"They":5049,"fo":5050,"who":5051,"way":5052,"need":5053,"ev":5054,"ans":5055,"An":5056,"ction":5057,"by":5058,"ident":5059,"You":5060,"ment":5061,"know":5062,"ia":5063,"ice":5064,"te":5065,"about":5066,"his":5067,"coun":5068,"ink":5069,"la":5070,"resident":5071,"qu":5072,"!!!":5073,"ele":5074,"ard":5075,"ong":5076,"would":5077,"IN":5078,"ob":5079,"over":5080,"ide":5081,"ci":5082,"some":5083,"ER":5084,"try":5085,"emo":5086,"ind":5087,"ive":5088,"ge":5089,"act":5090,"ity":5091,"This":5092,"um":5093,"oug":5094,"more":5095,"der":5096,"....":5097,"Ch":5098,"AN":5099,"ort":5100,"her":5101,"Biden":5102,"ves":5103,"emocr":5104,"there":5105,"RE":5106,"ber":5107,"ace":5108,"vi":5109,"ank":5110,"el":5111,"ro":5112,"ass":5113,"bo":5114,"sa":5115,"reat":5116,"emocrat":5117,"ear":5118,"think":5119,"ous":5120,"ws":5121,"him":5122,"say":5123,"right":5124,"should":5125,"day":5126,"uck":5127,"cau":5128,"ame":5129,"off":5130,"tru":5131,"want":5132,"ies":5133,"🇺🇸🇺🇸":5134,"ON":5135,"??":5136,"time":5137,"see":5138,"US":5139,"ast":5140,"every":5141,"how":5142,"President":5143,"cause":5144,"ick":5145,"did":5146,"been":5147,"pp":5148,"election":5149,"gr":5150,"ine":5151,"That":5152,"And":5153,"os":5154,"she":5155,"back":5156,"هههه":5157,"ite":5158,"If":5159,"co":5160,"when":5161,"No":5162,"ال":5163,"red":5164,"ose":5165,"God":5166,"other":5167,"THE":5168,"read":5169,"going":5170,"gu":5171,"cor":5172,"AT":5173,"Ne":5174,"these":5175,"ots":5176,"ound":5177,"iz":5178,"ree":5179,"IS":5180,"down":5181,"ty":5182,"ie":5183,"med":5184,"2020":5185,"St":5186,"So":5187,"ts":5188,"ser":5189,"In":5190,"fa":5191,"ting":5192,"sup":5193,"work":5194,"ase":5195,"dis":5196,"ubl":5197,"pol":5198,"OU":5199,"sto":5200,"AL":5201,"ft":5202,"ough":5203,"What":5204,"OT":5205,"br":5206,"Democrat":5207,"ublic":5208,"America":5209,"00":5210,"port":5211,"again":5212,"does":5213,"year":5214,"man":5215,"come":5216,"sel":5217,"only":5218,"aud":5219,"because":5220,"ler":5221,"Thank":5222,"country":5223,"Go":5224,"pro":5225,"ull":5226,"here":5227,"EN":5228,"af":5229,"OR":5230,"ho":5231,"😂😂":5232,"si":5233,"iv":5234,"lie":5235,"ach":5236,"had":5237,"ary":5238,"age":5239,"were":5240,"Jo":5241,"atch":5242,"ates":5243,"pt":5244,"ud":5245,"ope":5246,"ure":5247,"stand":5248,"good":5249,"ens":5250,"won":5251,"ence":5252,"per":5253,"ra":5254,"comm":5255,"happ":5256,"ign":5257,"too":5258,"part":5259,"cl":5260,"llow":5261,"take":5262,"able":5263,"ail":5264,"!!!!":5265,"ST":5266,"being":5267,"ish":5268,"ors":5269,"call":5270,"look":5271,"never":5272,"than":5273,"ated":5274,"got":5275,"wit":5276,"ry":5277,"atri":5278,"IT":5279,"als":5280,"ue":5281,"ple":5282,"ren":5283,"sp":5284,"des":5285,"less":5286,"let":5287,"ask":5288,"then":5289,"ful":5290,"LE":5291,"ID":5292,"She":5293,"left":5294,"itic":5295,"TR":5296,"even":5297,"shit":5298,"int":5299,"ING":5300,"make":5301,"ble":5302,"pre":5303,"ich":5304,"ress":5305,"fore":5306,"cho":5307,"arler":5308,"ave":5309,"Lo":5310,"ild":5311,"att":5312,"many":5313,"pos":5314,"mu":5315,"sc":5316,"ning":5317,"Rep":5318,"vote":5319,"why":5320,"Be":5321,"real":5322,"spe":5323,"Don":5324,"fraud":5325,"bet":5326,"those":5327,"AR":5328,"ile":5329,"ily":5330,"years":5331,"Just":5332,"where":5333,"cial":5334,"che":5335,"Is":5336,"ath":5337,"belie":5338,"American":5339,"trump":5340,"ory":5341,"under":5342,"could":5343,"ip":5344,"alk":5345,"new":5346,"ving":5347,"ait":5348,"ris":5349,"ism":5350,"ED":5351,"Chin":5352,"IC":5353,"ama":5354,"How":5355,"ins":5356,"said":5357,"But":5358,"put":5359,"ever":5360,"ang":5361,"fight":5362,"sure":5363,"🤣🤣":5364,"oy":5365,"watch":5366,"still":5367,"its":5368,"into":5369,"rest":5370,"much":5371,"well":5372,"great":5373,"itt":5374,"Pe":5375,"self":5376,"keep":5377,"ote":5378,"follow":5379,"believe":5380,"tell":5381,"gover":5382,"love":5383,"ution":5384,"De":5385,"stop":5386,"ste":5387,"Con":5388,"ade":5389,"most":5390,"urn":5391,"Democrats":5392,"ists":5393,"show":5394,"ought":5395,"Re":5396,"form":5397,"aking":5398,"ES":5399,"Not":5400,"long":5401,"govern":5402,"happen":5403,"ved":5404,"fer":5405,"sy":5406,"Do":5407,"politic":5408,"needs":5409,"really":5410,"law":5411,"hel":5412,"ems":5413,"ason":5414,"state":5415,"MP":5416,"media":5417,"cour":5418,"ah":5419,"news":5420,"Fo":5421,"Joe":5422,"Un":5423,"witter":5424,"fuck":5425,"ire":5426,"ven":5427,"use":5428,"AG":5429,"هههههههه":5430,"fir":5431,"aw":5432,"ma":5433,"post":5434,"ready":5435,"There":5436,"fam":5437,"start":5438,"Why":5439,"ance":5440,"erson":5441,"AND":5442,"AS":5443,"same":5444,"TO":5445,"ating":5446,"wo":5447,"oney":5448,"imp":5449,"care":5450,"may":5451,"Pr":5452,"fun":5453,"LL":5454,"TRU":5455,"serv":5456,"Republic":5457,"fl":5458,"thr":5459,"after":5460,"reed":5461,"world":5462,"19":5463,"ict":5464,"ان":5465,"AM":5466,"ways":5467,"ann":5468,"ese":5469,"wr":5470,"hope":5471,"News":5472,"corru":5473,"Ob":5474,"atter":5475,"amp":5476,"iss":5477,"illion":5478,"rep":5479,"must":5480,"All":5481,"reason":5482,"NO":5483,"ball":5484,"tim":5485,"help":5486,"ied":5487,"done":5488,"president":5489,"against":5490,"ower":5491,"app":5492,"nothing":5493,"big":5494,"vid":5495,"acc":5496,"child":5497,"aren":5498,"Com":5499,"min":5500,"GO":5501,"prob":5502,"lock":5503,"To":5504,"Yes":5505,"support":5506,"give":5507,"Mar":5508,"before":5509,"book":5510,"run":5511,"CH":5512,"person":5513,"count":5514,"contr":5515,"ff":5516,"Se":5517,"ouse":5518,"Parler":5519,"war":5520,"doesn":5521,"win":5522,"stit":5523,"ative":5524,"truth":5525,"liber":5526,"China":5527,"cont":5528,"mem":5529,"ise":5530,"life":5531,"ute":5532,"por":5533,"money":5534,"ations":5535,"az":5536,"also":5537,"didn":5538,"jo":5539,"Li":5540,"BL":5541,"CO":5542,"inter":5543,"guy":5544,"umb":5545,"atriots":5546,"akes":5547,"Twitter":5548,"doing":5549,"ually":5550,"fin":5551,"pay":5552,"YOU":5553,"better":5554,"ax":5555,"government":5556,"true":5557,"cer":5558,"cted":5559,"TRUMP":5560,"eg":5561,"head":5562,"bu":5563,"ith":5564,"ash":5565,"ious":5566,"Let":5567,"par":5568,"mar":5569,"democrat":5570,"ALL":5571,"away":5572,"rus":5573,"sha":5574,"cy":5575,"used":5576,"My":5577,"family":5578,"commun":5579,"anything":5580,"For":5581,"full":5582,"cre":5583,"Obama":5584,"something":5585,"sen":5586,"Ex":5587,"leg":5588,"cit":5589,"DE":5590,"As":5591,"Good":5592,"mor":5593,"ime":5594,"ical":5595,"hand":5596,"org":5597,"stitution":5598,"free":5599,"black":5600,"Co":5601,"bs":5602,"igh":5603,"ange":5604,"turn":5605,"rac":5606,"first":5607,"mon":5608,"VE":5609,"fact":5610,"TI":5611,"kill":5612,"upid":5613,"Can":5614,"talk":5615,"which":5616,"old":5617,"bit":5618,"bad":5619,"sur":5620,"allow":5621,"son":5622,"social":5623,"reedom":5624,"dem":5625,"Mo":5626,"AC":5627,"lear":5628,"coming":5629,"vide":5630,"always":5631,"ody":5632,"ght":5633,"Americans":5634,"ittle":5635,"ition":5636,"arr":5637,"land":5638,"VER":5639,"top":5640,"Fr":5641,"Al":5642,"point":5643,"DO":5644,"another":5645,"feel":5646,"list":5647,"Le":5648,"anyone":5649,"wom":5650,"crim":5651,"trying":5652,"reg":5653,"already":5654,"power":5655,"ds":5656,"play":5657,"job":5658,"find":5659,"ters":5660,"last":5661,"May":5662,"getting":5663,"na":5664,"Oh":5665,"agree":5666,"🇺🇸🇺🇸🇺🇸🇺🇸":5667,"Well":5668,"votes":5669,"NOT":5670,"Bl":5671,"On":5672,"mask":5673,".....":5674,"live":5675,"sin":5676,"ian":5677,"les":5678,"pray":5679,"ms":5680,"made":5681,"dr":5682,"Who":5683,"cur":5684,"little":5685,"NE":5686,"que":5687,"lease":5688,"ement":5689,"stupid":5690,"aid":5691,"hear":5692,"Now":5693,"str":5694,"bus":5695,"av":5696,"lead":5697,"party":5698,"virus":5699,"fri":5700,"idence":5701,"Fox":5702,"million":5703,"ord":5704,"OF":5705,"evil":5706,"friend":5707,"troy":5708,"thought":5709,"haha":5710,"BE":5711,"matter":5712,"til":5713,"ced":5714,"yes":5715,"everyone":5716,"OS":5717,"while":5718,"When":5719,"oo":5720,"pect":5721,"sho":5722,"ness":5723,"giv":5724,"WH":5725,"enough":5726,"FB":5727,"things":5728,"iness":5729,"ati":5730,"mind":5731,"ces":5732,"Sh":5733,"Ge":5734,"Thanks":5735,"lad":5736,"ney":5737,"hell":5738,"ings":5739,"ald":5740,"atriot":5741,"estion":5742,"je":5743,"dec":5744,"ats":5745,"through":5746,"People":5747,"los":5748,"someone":5749,"dam":5750,"hate":5751,"ks":5752,"children":5753,"WE":5754,"comp":5755,"ship":5756,"side":5757,"isn":5758,"men":5759,"ror":5760,"corrupt":5761,"destroy":5762,"ton":5763,"eral":5764,"mm":5765,"ards":5766,"inion":5767,"wait":5768,"lot":5769,"sm":5770,"ars":5771,"ye":5772,"police":5773,"idi":5774,"prote":5775,"**":5776,"10":5777,"hard":5778,"each":5779,"kid":5780,"ual":5781,"Br":5782,"ines":5783,"oup":5784,"BLM":5785,"gen":5786,"aken":5787,"plan":5788,"oll":5789,"ph":5790,"vie":5791,"IG":5792,"mean":5793,"bre":5794,"ult":5795,"nation":5796,"prop":5797,"gh":5798,"far":5799,"ago":5800,"Ele":5801,"ão":5802,"wrong":5803,"These":5804,"Please":5805,"body":5806,"voting":5807,"--":5808,"freedom":5809,"ited":5810,"face":5811,"around":5812,"lose":5813,"tifa":5814,"Sen":5815,"HA":5816,"OL":5817,"vo":5818,"today":5819,"move":5820,"ilit":5821,"Tru":5822,"Or":5823,"saying":5824,"OP":5825,"ians":5826,"vers":5827,"home":5828,"pon":5829,"ably":5830,"actually":5831,"everything":5832,"UN":5833,"white":5834,"log":5835,"ial":5836,"control":5837,"lies":5838,"cess":5839,"ped":5840,"AGA":5841,"ME":5842,"dif":5843,"car":5844,"question":5845,"io":5846,"???":5847,"cent":5848,"evidence":5849,"ush":5850,"ech":5851,"Cl":5852,"New":5853,"لا":5854,"enti":5855,"yet":5856,"thers":5857,"Comm":5858,"WI":5859,"bless":5860,"called":5861,"without":5862,"selves":5863,"sl":5864,"set":5865,"char":5866,"FOR":5867,"hum":5868,"Ke":5869,"add":5870,"place":5871,"hold":5872,"fi":5873,"Great":5874,"nor":5875,"ither":5876,"nex":5877,"sol":5878,"says":5879,"MO":5880,"steal":5881,"conserv":5882,"ار":5883,"ny":5884,"thank":5885,"proble":5886,"states":5887,"ger":5888,"Every":5889,"VID":5890,"video":5891,"ption":5892,"until":5893,"tive":5894,"crimin":5895,"business":5896,"inv":5897,"wee":5898,"death":5899,"ones":5900,"next":5901,"istory":5902,"Sor":5903,"sw":5904,"open":5905,"sick":5906,"ali":5907,"AK":5908,"Get":5909,"lives":5910,"two":5911,"led":5912,"pres":5913,"da":5914,"AY":5915,"times":5916,"ENT":5917,"Face":5918,"Some":5919,"ize":5920,"line":5921,"ef":5922,"uc":5923,"Your":5924,"lost":5925,"rist":5926,"Sup":5927,"order":5928,"ater":5929,"parler":5930,"vacc":5931,"pris":5932,"LI":5933,"gun":5934,"cha":5935,"chool":5936,"best":5937,"mag":5938,"since":5939,"arrest":5940,"understand":5941,"En":5942,"ments":5943,"لي":5944,"few":5945,"syst":5946,"USA":5947,"lcome":5948,"offic":5949,"please":5950,"000":5951,"boy":5952,"report":5953,"oud":5954,"else":5955,"def":5956,"citiz":5957,"ons":5958,"name":5959,"cover":5960,"MS":5961,"Patriots":5962,"viol":5963,"UP":5964,"tain":5965,"Ar":5966,"action":5967,"Ye":5968,"democrats":5969,"cept":5970,"sign":5971,"ying":5972,"Are":5973,"office":5974,"fake":5975,"ug":5976,"bro":5977,"change":5978,"Look":5979,"check":5980,"bull":5981,"tig":5982,"house":5983,"HE":5984,"bas":5985,"alth":5986,"hn":5987,"Love":5988,"ding":5989,"IL":5990,"stre":5991,"له":5992,"At":5993,"هههههههههههههههه":5994,"Our":5995,"cu":5996,"days":5997,"wonder":5998,"such":5999,"differ":6000,"actly":6001,"wear":6002,"ately":6003,"vestig":6004,"tax":6005,"contin":6006,"augh":6007,"Facebook":6008,"ما":6009,"both":6010,"Republicans":6011,"ner":6012,"voted":6013,"ARE":6014,"Of":6015,"ss":6016,"dead":6017,"Dems":6018,"acy":6019,"Donald":6020,"ell":6021,"vel":6022,"voter":6023,"ents":6024,"liberal":6025,"deep":6026,"Chris":6027,"gets":6028,"Ag":6029,"lim":6030,"OW":6031,"miss":6032,"11":6033,"Fuck":6034,"SE":6035,"account":6036,"history":6037,"public":6038,"losi":6039,"من":6040,"utely":6041,"jud":6042,"MAGA":6043,"found":6044,"Christ":6045,"Cong":6046,"den":6047,"ants":6048,"suppor":6049,"vil":6050,"uss":6051,"using":6052,"trust":6053,"bt":6054,"member":6055,"ين":6056,"seen":6057,"ballots":6058,"fucking":6059,"hon":6060,"light":6061,"trait":6062,"atives":6063,"racist":6064,"system":6065,"might":6066,"Cor":6067,"makes":6068,"ona":6069,"ilitary":6070,"Republican":6071,"Part":6072,"night":6073,"republic":6074,"respon":6075,"State":6076,"fully":6077,"Election":6078,"sible":6079,"Where":6080,"100":6081,"school":6082,"terror":6083,"wish":6084,"ون":6085,"Ha":6086,"political":6087,"mess":6088,"ged":6089,"heard":6090,"ator":6091,"emp":6092,"Me":6093,"ott":6094,"Then":6095,"reme":6096,"cut":6097,"soon":6098,"John":6099,"rid":6100,"RI":6101,"problem":6102,"PE":6103,"bitch":6104,"FBI":6105,"course":6106,"Har":6107,"press":6108,"prot":6109,"arch":6110,"stay":6111,"protect":6112,"Keep":6113,"OTUS":6114,"high":6115,"ret":6116,"ned":6117,"THIS":6118,"themselves":6119,"prom":6120,"Gover":6121,"lol":6122,"cond":6123,"coll":6124,"RES":6125,"Will":6126,"investig":6127,"ority":6128,"House":6129,"12":6130,"States":6131,"guess":6132,"oting":6133,"Jes":6134,"bal":6135,"inform":6136,"😂😂😂😂":6137,"comple":6138,"kind":6139,"uring":6140,"His":6141,"wer":6142,"sid":6143,"ext":6144,"Pol":6145,"others":6146,"sense":6147,"Maybe":6148,"AD":6149,"attack":6150,"americ":6151,"30":6152,"?!":6153,"SH":6154,"Any":6155,"mer":6156,"OM":6157,"told":6158,"illeg":6159,"hy":6160,"pass":6161,"Coun":6162,"One":6163,"IST":6164,"plain":6165,"ames":6166,"gon":6167,"block":6168,"listen":6169,"esting":6170,"🙏🙏":6171,"wants":6172,"Mr":6173,"either":6174,"human":6175,"Lol":6176,"mail":6177,"vious":6178,"orgia":6179,"CK":6180,"👏👏":6181,"ics":6182,"sit":6183,"patriots":6184,"brain":6185,"giving":6186,"posed":6187,"kids":6188,"sad":6189,"case":6190,"lor":6191,"With":6192,"laim":6193,"pret":6194,"Black":6195,"Pelosi":6196,"SO":6197,"threat":6198,"val":6199,"fect":6200,"irl":6201,"month":6202,"probably":6203,"fort":6204,"beh":6205,"whole":6206,"tot":6207,"unch":6208,"comes":6209,"RA":6210,"shut":6211,"constitution":6212,"IA":6213,"ared":6214,"ets":6215,"201":6216,"elected":6217,"woman":6218,"bi":6219,"GE":6220,"COVID":6221,"sent":6222,"ucker":6223,"Jesus":6224,"og":6225,"Yeah":6226,"ically":6227,"outh":6228,"ERIC":6229,"Dem":6230,"jail":6231,"main":6232,"🙏🏻":6233,"group":6234,"bring":6235,"word":6236,"lying":6237,"knows":6238,"biden":6239,"ities":6240,"Antifa":6241,"GA":6242,"نا":6243,"NN":6244,"Because":6245,"watching":6246,"working":6247,"pie":6248,"IR":6249,"stat":6250,"AMERIC":6251,"Did":6252,"justice":6253,"ital":6254,"Je":6255,"ump":6256,"Commun":6257,"dou":6258,"pend":6259,"NY":6260,"ONE":6261,"view":6262,"White":6263,"gin":6264,"ops":6265,"Party":6266,"ctor":6267,"Constitution":6268,"making":6269,"ION":6270,"bor":6271,"send":6272,"Covid":6273,"dom":6274,"nn":6275,"issu":6276,"LY":6277,"PR":6278,"corruption":6279,"mas":6280,"Congress":6281,"Right":6282,"ounds":6283,"save":6284,"camp":6285,"Time":6286,"ark":6287,"cal":6288,"وا":6289,"least":6290,"complete":6291,".”":6292,"FU":6293,"unter":6294,"United":6295,"though":6296,"communist":6297,"Georgia":6298,"OUR":6299,"speech":6300,"sor":6301,"ions":6302,"Wor":6303,"BS":6304,"DC":6305,"wouldn":6306,"taking":6307,"Wow":6308,"anti":6309,"sing":6310,"ility":6311,"gether":6312,"came":6313,"idiot":6314,"information":6315,"having":6316,"NOW":6317,"gonna":6318,"tic":6319,"ca":6320,"ery":6321,"dumb":6322,"pop":6323,"ude":6324,"aul":6325,"Welcome":6326,"behind":6327,"Bill":6328,"ges":6329,"Stop":6330,"ures":6331,"friends":6332,"forn":6333,"Hey":6334,"uff":6335,"Pro":6336,"claim":6337,"citizens":6338,"CNN":6339,"ward":6340,"talking":6341,"vaccine":6342,"military":6343,"Amen":6344,"fed":6345,"treason":6346,"50":6347,"ub":6348,"Patriot":6349,"cannot":6350,"ino":6351,"fighting":6352,"LO":6353,"ties":6354,"!!!!!":6355,"itch":6356,"يا":6357,"fire":6358,"happened":6359,"heart":6360,"Cali":6361,"women":6362,"peace":6363,"become":6364,"means":6365,"looking":6366,"FO":6367,"ww":6368,"UST":6369,"sub":6370,"inc":6371,"speak":6372,"Cour":6373,"hor":6374,"politicians":6375,"cle":6376,"swamp":6377,"vis":6378,"remember":6379,"ont":6380,"und":6381,"TION":6382,"Hill":6383,"Pray":6384,"ten":6385,"went":6386,"looks":6387,"har":6388,"ref":6389,"past":6390,"together":6391,"walk":6392,"Chinese":6393,"knew":6394,"Mc":6395,"gust":6396,"deal":6397,"clear":6398,"mur":6399,"HT":6400,"ket":6401,"🤣🤣🤣🤣":6402,"Have":6403,"covid":6404,"17":6405,"😡😡":6406,"Barr":6407,"🇺🇸🇺🇸🇺🇸":6408,"Po":6409,"ues":6410,"istr":6411,"yourself":6412,"Hope":6413,"incl":6414,"Big":6415,"maj":6416,"leave":6417,"pose":6418,"با":6419,"Pl":6420,"oph":6421,"words":6422,"aff":6423,"Dr":6424,"lobal":6425,"rights":6426,"Car":6427,"Never":6428,"Bless":6429,"CE":6430,"Dan":6431,"ators":6432,"crap":6433,"War":6434,"VOT":6435,"ib":6436,"Liber":6437,"prof":6438,"More":6439,"week":6440,"ها":6441,"esome":6442,"worth":6443,"scre":6444,"را":6445,"ized":6446,"king":6447,"tif":6448,"fair":6449,"non":6450,"along":6451,"liev":6452,"tw":6453,"gest":6454,"strong":6455,"GOP":6456,"TER":6457,"legal":6458,"push":6459,"idea":6460,"team":6461,"eas":6462,"once":6463,"fornia":6464,"می":6465,"court":6466,"bab":6467,"mass":6468,"deser":6469,"aign":6470,"di":6471,"fail":6472,"allowed":6473,"air":6474,"paid":6475,"Hell":6476,"plat":6477,"paren":6478,"different":6479,"fil":6480,"mom":6481,"fear":6482,"corre":6483,"ube":6484,"join":6485,"ham":6486,"mach":6487,"conservative":6488,"etc":6489,"spir":6490,"goes":6491,"joy":6492,"cap":6493,"enn":6494,"fall":6495,"crime":6496,"trans":6497,"Clint":6498,"took":6499,"Bo":6500,"Gu":6501,"suck":6502,"Harris":6503,"ember":6504,"weet":6505,"simp":6506,"fund":6507,"enem":6508,"aa":6509,"creat":6510,"ensor":6511,"Gr":6512,"SC":6513,"ather":6514,"respect":6515,"class":6516,"في":6517,"believ":6518,"ject":6519,"POS":6520,"Tr":6521,"Only":6522,"irst":6523,"absol":6524,"supporters":6525,"......":6526,"ATE":6527,"load":6528,"Left":6529,"cas":6530,"gress":6531,"organ":6532,"CC":6533,"die":6534,"patriot":6535,"girl":6536,"maybe":6537,"Soros":6538,"FA":6539,"platform":6540,"MSM":6541,"Here":6542,"comment":6543,"ices":6544,"pped":6545,"202":6546,"anger":6547,"CON":6548,"ety":6549,".\"":6550,"damn":6551,"Tex":6552,"pur":6553,"anymore":6554,"Vote":6555,"loy":6556,"shot":6557,"craz":6558,"defin":6559,"Does":6560,"lig":6561,"elections":6562,"import":6563,"Court":6564,"IGHT":6565,"Christi":6566,"fig":6567,"ancy":6568,"mis":6569,"ee":6570,"ada":6571,"THEY":6572,"flu":6573,"الله":6574,"California":6575,"THAT":6576,"truly":6577,"stead":6578,"works":6579,"UT":6580,"educ":6581,"AB":6582,"ling":6583,"anned":6584,"step":6585,"glad":6586,"ased":6587,"continue":6588,"bur":6589,"health":6590,"trump2020":6591,"Sp":6592,"WILL":6593,"ults":6594,"umber":6595,"Hunter":6596,"ina":6597,"requ":6598,"murder":6599,"defend":6600,"بي":6601,"appe":6602,"Af":6603,"honest":6604,"pet":6605,"lls":6606,"story":6607,"tech":6608,"Hillary":6609,"ane":6610,"bullshit":6611,"Gen":6612,"longer":6613,"during":6614,"ست":6615,"ys":6616,"Med":6617,"hh":6618,"ised":6619,"thinking":6620,"maga":6621,"Dom":6622,"bill":6623,"gusting":6624,"ya":6625,"opinion":6626,"safe":6627,"Che":6628,"col":6629,"dri":6630,"net":6631,"soci":6632,"Lord":6633,"low":6634,"🇺🇲":6635,"ork":6636,"Like":6637,"ike":6638,"tial":6639,"ific":6640,"????":6641,"saw":6642,"force":6643,"Social":6644,"PRES":6645,"resent":6646,"ites":6647,"wasn":6648,"sk":6649,"Senate":6650,"ran":6651,"rug":6652,").":6653,"Watch":6654,"$$":6655,"seems":6656,"Vot":6657,"protest":6658,"running":6659,"given":6660,"correct":6661,"ور":6662,"GOD":6663,"sorry":6664,"🤬🤬":6665,"masks":6666,"iff":6667,"funny":6668,"conom":6669,"ands":6670,"happening":6671,"criminal":6672,"prison":6673,"started":6674,"Dis":6675,"taken":6676,"voters":6677,"illegal":6678,"Per":6679,"dire":6680,"RAT":6681,"guys":6682,"faith":6683,"wood":6684,"Marx":6685,"auti":6686,"throw":6687,"Abs":6688,"stuff":6689,"ctive":6690,"deb":6691,"piece":6692,"pretty":6693,"pen":6694,"ony":6695,"close":6696,"ible":6697,"AKE":6698,"gone":6699,"eter":6700,"echo":6701,"EVER":6702,"Red":6703,"ps":6704,"accept":6705,"exactly":6706,"cast":6707,"train":6708,"Nation":6709,"crazy":6710,"LA":6711,"Ro":6712,"هم":6713,"Follow":6714,"Texas":6715,"obvious":6716,"Clinton":6717,"chang":6718,"break":6719,"search":6720,"ale":6721,"omo":6722,"ashing":6723,"sex":6724,"laws":6725,"answer":6726,"cially":6727,"campaign":6728,"moved":6729,"Happ":6730,"attle":6731,"Rem":6732,"fool":6733,"😂🤣":6734,"autiful":6735,"censor":6736,"emic":6737,"invol":6738,"sil":6739,"till":6740,"Ste":6741,"nice":6742,"OUT":6743,"Rob":6744,"lam":6745,"دا":6746,"ention":6747,"forget":6748,"city":6749,"pict":6750,"Res":6751,"itely":6752,"Mus":6753,"artic":6754,"TRUMP2020":6755,"dog":6756,"Supreme":6757,"build":6758,"haven":6759,"Sc":6760,"ado":6761,"ular":6762,"serious":6763,"😂😂😂":6764,"UR":6765,"proud":6766,"fal":6767,"important":6768,"ier":6769,"colle":6770,"months":6771,"hu":6772,"test":6773,"blue":6774,"entire":6775,"Christmas":6776,"Tucker":6777,"calling":6778,"mal":6779,"facts":6780,"Ano":6781,"row":6782,"link":6783,"liberals":6784,"small":6785,"CCP":6786,"ول":6787,"aring":6788,"happens":6789,"👍👍":6790,"dont":6791,"Another":6792,"15":6793,"Jan":6794,"ric":6795,"tow":6796,"conf":6797,"living":6798,"14":6799,"Take":6800,"rel":6801,"13":6802,"Sch":6803,"hit":6804,"Ad":6805,"hur":6806,"fac":6807,"uture":6808,"teach":6809,"Man":6810,"includ":6811,"treat":6812,"wins":6813,"tar":6814,"ister":6815,"YOUR":6816,"Her":6817,"alf":6818,"POTUS":6819,"due":6820,"gi":6821,"rad":6822,"sn":6823,"god":6824,"OO":6825,"Absol":6826,"share":6827,"First":6828,"atan":6829,"plac":6830,"After":6831,"idiots":6832,"athe":6833,"van":6834,"sider":6835,"Fraud":6836,"cult":6837,"tries":6838,"NC":6839,"burn":6840,"oper":6841,"cell":6842,"oc":6843,"Mark":6844,"ta":6845,"happy":6846,"ERS":6847,"violence":6848,"spread":6849,"fol":6850,"sus":6851,"front":6852,"worse":6853,"PA":6854,"cow":6855,"اي":6856,"pocr":6857,"Democratic":6858,",,":6859,"enda":6860,"following":6861,"Its":6862,"leader":6863,"vol":6864,"fix":6865,"national":6866,"Off":6867,"ted":6868,"orge":6869,"amal":6870,"NEW":6871,"number":6872,"pull":6873,"curity":6874,"ito":6875,"iter":6876,"tried":6877,"Nothing":6878,"ages":6879,"Dominion":6880,"York":6881,"ignor":6882,"econom":6883,"ween":6884,"ivid":6885,"mouth":6886,"tly":6887,"begin":6888,"key":6889,"proof":6890,"gl":6891,"sci":6892,"twitter":6893,"Their":6894,"ified":6895,"Qu":6896,"pick":6897,"CA":6898,"cand":6899,"Ho":6900,"ross":6901,"owell":6902,"ANY":6903,"standing":6904,"Law":6905,"term":6906,"tired":6907,"ird":6908,"THING":6909,"himself":6910,"arrested":6911,"endment":6912,"18":6913,"igan":6914,"killed":6915,"Even":6916,"MA":6917,"band":6918,"umbers":6919,"KE":6920,"From":6921,"depend":6922,"lynn":6923,"position":6924,"future":6925,"laugh":6926,"certain":6927,"auci":6928,"rele":6929,"absolutely":6930,"eyes":6931,"kick":6932,"race":6933,"fav":6934,"Communist":6935,"Bar":6936,"sal":6937,"wanted":6938,"exper":6939,"hom":6940,"ials":6941,"Nancy":6942,"gave":6943,"bar":6944,"sell":6945,"second":6946,"WW":6947,"late":6948,"bers":6949,"Truth":6950,"qual":6951,"tyr":6952,"LD":6953,"ional":6954,"itive":6955,"anda":6956,"seem":6957,"morning":6958,"elect":6959,"instead":6960,"ground":6961,"Jud":6962,"lood":6963,"flag":6964,"ministr":6965,"fre":6966,"urch":6967,"Also":6968,"atever":6969,"stein":6970,"millions":6971,"PRESID":6972,"eng":6973,"Da":6974,"wing":6975,"pand":6976,"youn":6977,"mber":6978,"Happy":6979,"civil":6980,"Absolutely":6981,"ming":6982,"global":6983,"socialist":6984,"nal":6985,"Washing":6986,"telling":6987,"EX":6988,"cities":6989,"traitor":6990,"hour":6991,"politics":6992,"cus":6993,"Sorry":6994,"ILL":6995,"odu":6996,"tom":6997,"leep":6998,"ichigan":6999,"folks":7000,"Very":7001,"Washington":7002,"Cu":7003,"expect":7004,"Mic":7005,"bag":7006,"max":7007,"game":7008,"FL":7009,"Spe":7010,"ERE":7011,"ished":7012,"”.":7013,"Act":7014,"Tube":7015,"Sha":7016,"ense":7017,"ays":7018,"__":7019,"ulation":7020,"OPLE":7021,"Come":7022,"suit":7023,"\".":7024,"PEOPLE":7025,"prose":7026,"ده":7027,"hang":7028,"needed":7029,"Yep":7030,"seeing":7031,"waiting":7032,"😭😭":7033,"imm":7034,"chance":7035,"igr":7036,"Exactly":7037,"joke":7038,"majority":7039,"Russ":7040,"ai":7041,"ond":7042,"hoto":7043,"Sid":7044,"room":7045,"IF":7046,"numbers":7047,"sla":7048,"ير":7049,"antifa":7050,"level":7051,"ams":7052,"ACK":7053,"ban":7054,"gy":7055,"Call":7056,"buy":7057,"Most":7058,"ster":7059,"zing":7060,"sold":7061,"couldn":7062,"gar":7063,"wake":7064,"false":7065,"joe":7066,"stra":7067,"turned":7068,"Govern":7069,"conservatives":7070,"Ok":7071,"PRESIDENT":7072,"Ser":7073,"ern":7074,"🇺🇸❤":7075,"Par":7076,"Up":7077,"doll":7078,"Trump2020":7079,"Russia":7080,"wife":7081,"OC":7082,"message":7083,"Media":7084,"traitors":7085,"between":7086,"doubt":7087,"wash":7088,"YouTube":7089,"choice":7090,"thanks":7091,"dy":7092,"Conserv":7093,"lar":7094,"onavirus":7095,"Ab":7096,"Justice":7097,"UD":7098,"almost":7099,"tiv":7100,"COM":7101,"brother":7102,"bast":7103,"Those":7104,"George":7105,"24":7106,"PAR":7107,"takes":7108,"fraid":7109,"drop":7110,"involved":7111,"Sidney":7112,"criminals":7113,"bunch":7114,"ging":7115,"leftist":7116,"ga":7117,"cro":7118,"consider":7119,"ELE":7120,"disgusting":7121,"america":7122,"La":7123,"agenda":7124,"fortun":7125,"yr":7126,"grow":7127,"NEVER":7128,"mod":7129,"prev":7130,"Remember":7131,"guns":7132,"Make":7133,"bed":7134,"results":7135,"ogle":7136,"stopthe":7137,"ballot":7138,"rece":7139,"وي":7140,"witch":7141,"ida":7142,"OUN":7143,"process":7144,"ending":7145,"crimes":7146,"انا":7147,"Too":7148,"tur":7149,"SS":7150,"Was":7151,"une":7152,"ature":7153,"forward":7154,"80":7155,"unt":7156,"represent":7157,"isl":7158,"AMERICA":7159,"federal":7160,"60":7161,"proper":7162,"possible":7163,"smart":7164,"stud":7165,"25":7166,"Powell":7167,"irt":7168,"hands":7169,"Fake":7170,"ANT":7171,"amala":7172,"ired":7173,"decl":7174,"oul":7175,"enjoy":7176,"مع":7177,"pic":7178,"pun":7179,"article":7180,"Michigan":7181,"awesome":7182,"cred":7183,"demon":7184,"completely":7185,"aganda":7186,"countries":7187,"thinks":7188,"interest":7189,"Governor":7190,"vic":7191,"afraid":7192,"ried":7193,"surpris":7194,"definitely":7195,"candid":7196,"WITH":7197,"Flynn":7198,"mit":7199,"بس":7200,"thous":7201,"total":7202,"explain":7203,"ences":7204,"rible":7205,"learn":7206,"curren":7207,"favor":7208,"Pres":7209,"ik":7210,"inst":7211,"Fauci":7212,"dest":7213,"دي":7214,"recor":7215,"ood":7216,"rem":7217,"ening":7218,"200":7219,"foreign":7220,"shall":7221,"45":7222,"beautiful":7223,"fill":7224,"sib":7225,"cret":7226,"ECH":7227,"idd":7228,"Sad":7229,"ای":7230,"held":7231,"Ter":7232,"supposed":7233,"stream":7234,"Aw":7235,"half":7236,"roll":7237,"statement":7238,"exam":7239,"Everyone":7240,"espe":7241,"concer":7242,"picture":7243,"IM":7244,"known":7245,"wearing":7246,"CIA":7247,"wide":7248,"foot":7249,"vember":7250,"Vi":7251,"polic":7252,"Dep":7253,"unity":7254,"parents":7255,"cheating":7256,"Cuomo":7257,"alone":7258,"intell":7259,"counts":7260,"gener":7261,"ili":7262,"young":7263,"oles":7264,"grand":7265,"shows":7266,"organiz":7267,"asc":7268,"died":7269,"ley":7270,"iding":7271,"ctr":7272,"sever":7273,"Christian":7274,"Fe":7275,"TV":7276,"ruction":7277,"Boy":7278,"Again":7279,"Kamala":7280,"rich":7281,"mother":7282,"November":7283,"Cr":7284,"troll":7285,"cing":7286,"Freedom":7287,"RIN":7288,"abor":7289,"enemy":7290,"dark":7291,"16":7292,"🇺🇸🇺🇸🇺🇸🇺🇸🇺🇸🇺🇸🇺🇸🇺🇸":7293,"terrorist":7294,"ministration":7295,"enter":7296,"See":7297,"Out":7298,"four":7299,"loser":7300,"iles":7301,"grace":7302,"piss":7303,"common":7304,"FE":7305,"👍🏻":7306,"removed":7307,"figure":7308,"info":7309,"Country":7310,"pri":7311,"service":7312,"Rober":7313,"FUCK":7314,"auth":7315,"logy":7316,"aro":7317,"Ac":7318,"photo":7319,"imag":7320,"ulous":7321,"ideo":7322,"jobs":7323,"Sw":7324,"realize":7325,"dems":7326,"ince":7327,"exist":7328,"pedoph":7329,"page":7330,"lockdown":7331,"businesses":7332,"App":7333,"Real":7334,"hypocr":7335,"ero":7336,"itted":7337,"kk":7338,"len":7339,"Stand":7340,"By":7341,"ze":7342,"crook":7343,"G1":7344,"Would":7345,"WGA":7346,"🇧🇷":7347,"blame":7348,"رو":7349,"rules":7350,"aged":7351,"medi":7352,"empt":7353,"republicans":7354,"Dam":7355,"single":7356,"baby":7357,"Day":7358,"issue":7359,"deserve":7360,"Bet":7361,"Pence":7362,"2016":7363,"dos":7364,"uses":7365,"clean":7366,"blocked":7367,"sour":7368,"erry":7369,"Matter":7370,"mand":7371,"به":7372,"cou":7373,"beat":7374,"prove":7375,"hat":7376,"cheat":7377,"decis":7378,"WWG1":7379,"Fed":7380,"Mike":7381,"pot":7382,"whatever":7383,"impeach":7384,"willing":7385,"bey":7386,"danger":7387,"wise":7388,"exe":7389,"WHO":7390,"70":7391,"CAN":7392,"relig":7393,"Won":7394,"narr":7395,"security":7396,"compl":7397,"40":7398,"OD":7399,"local":7400,"cases":7401,"ELEC":7402,"não":7403,"aper":7404,"DOJ":7405,"ference":7406,"stopthesteal":7407,"Min":7408,"mental":7409,"اح":7410,"ode":7411,"Hi":7412,"ben":7413,"squ":7414,"slide":7415,"Police":7416,"idential":7417,"likely":7418,"suc":7419,"VOTE":7420,"iddle":7421,"dist":7422,"tions":7423,"ended":7424,"leaders":7425,"machines":7426,"fast":7427,"تر":7428,"Te":7429,"del":7430,"drug":7431,"ix":7432,"uary":7433,"wall":7434,"straight":7435,"WWG1WGA":7436,"rats":7437,"ify":7438,"luck":7439,"amazing":7440,"members":7441,"🙏🏼":7442,"ades":7443,"meet":7444,"actions":7445,"tor":7446,"ability":7447,"propaganda":7448,"هههههههههههههههههههههههههههههههه":7449,"EVERY":7450,"FRE":7451,"در":7452,"sheep":7453,"stopped":7454,"fortunately":7455,"Should":7456,"22":7457,"MY":7458,"ICE":7459,"athetic":7460,"👏🏻":7461,"poor":7462,"GET":7463,"cru":7464,"plo":7465,"وم":7466,"anyway":7467,"HAVE":7468,"76":7469,"attention":7470,"----":7471,"Marxist":7472,"Bre":7473,"rig":7474,"demand":7475,"ني":7476,"ata":7477,"Down":7478,"totally":7479,"Sy":7480,"Tom":7481,"preci":7482,"Looks":7483,"National":7484,"Naz":7485,"Nor":7486,"Su":7487,"produ":7488,"anny":7489,"including":7490,"kne":7491,"mus":7492,"rain":7493,"via":7494,"para":7495,"iterally":7496,"Echo":7497,"quick":7498,"scum":7499,"Inter":7500,"stor":7501,"Bol":7502,"hide":7503,"weeks":7504,"Has":7505,"appoint":7506,"near":7507,"myself":7508,"Put":7509,"ANS":7510,"icking":7511,"syl":7512,"ام":7513,"ails":7514,"TY":7515,"comments":7516,"🤮🤮":7517,"riot":7518,"moron":7519,"Sm":7520,"atic":7521,"judge":7522,"republican":7523,"Politic":7524,"born":7525,"NB":7526,"research":7527,"short":7528,"........":7529,"site":7530,"vict":7531,"water":7532,"prise":7533,"within":7534,"priv":7535,"cares":7536,"WOR":7537,"ination":7538,"rather":7539,"posts":7540,"Fight":7541,"playing":7542,"hearing":7543,"DON":7544,"pain":7545,"poin":7546,"fic":7547,"ral":7548,"congress":7549,"brought":7550,"Show":7551,"ilar":7552,"feed":7553,"cost":7554,"Islam":7555,"DS":7556,"ene":7557,"IDEN":7558,"DEMO":7559,"cop":7560,"zy":7561,"especially":7562,"mention":7563,"voice":7564,"World":7565,"door":7566,"ANTI":7567,"LOL":7568,"mine":7569,"ATION":7570,"phone":7571,"Free":7572,"han":7573,"تي":7574,"rew":7575,"hood":7576,"fur":7577,"بع":7578,"True":7579,"hun":7580,"ennsyl":7581,"UM":7582,"irty":7583,"Anyone":7584,"censorship":7585,"Ep":7586,"div":7587,"asked":7588,"watched":7589,"ennsylvan":7590,"ود":7591,"caught":7592,"كل":7593,"across":7594,"personal":7595,"Wall":7596,"99":7597,"rat":7598,"WAY":7599,"poll":7600,"DEMOC":7601,"EP":7602,"Deep":7603,"shame":7604,"Back":7605,"Holl":7606,"TS":7607,"board":7608,"cott":7609,"activ":7610,"ASS":7611,"aste":7612,"commit":7613,"SCOTUS":7614,"Tim":7615,"fli":7616,"father":7617,"regard":7618,"gry":7619,"governor":7620,"ennsylvania":7621,"Sounds":7622,"perfect":7623,"21":7624,"terday":7625,"Flor":7626,"ides":7627,"debate":7628,"spo":7629,"ends":7630,"issues":7631,"blood":7632,"lin":7633,"streets":7634,"huge":7635,"),":7636,"اا":7637,"EO":7638,"hasn":7639,"individ":7640,"AP":7641,"بر":7642,"sonaro":7643,"sey":7644,"ping":7645,"ulent":7646,"ield":7647,"posted":7648,"atur":7649,"worked":7650,"distr":7651,"aughter":7652,"RIOT":7653,"osp":7654,"dict":7655,"company":7656,"officials":7657,"peaceful":7658,"gn":7659,"🤣🤣🤣":7660,"OB":7661,"inal":7662,"adv":7663,"الم":7664,"society":7665,"ات":7666,"hair":7667,"abo":7668,"HAHA":7669,"Check":7670,"rule":7671,"Think":7672,"AOC":7673,"ywood":7674,"mark":7675,"argu":7676,"unless":7677,"asking":7678,"لو":7679,"three":7680,"constitutional":7681,"Iran":7682,"eat":7683,"ournal":7684,"gram":7685,"content":7686,"legisl":7687,"rupt":7688,"guil":7689,"positive":7690,"apo":7691,"cute":7692,"easy":7693,"hop":7694,"nd":7695,"welcome":7696,"worst":7697,"NA":7698,"sound":7699,"ctoral":7700,"dig":7701,"BIDEN":7702,"ECHO":7703,"fat":7704,"ured":7705,"remain":7706,"iculous":7707,"Des":7708,"ção":7709,"shoot":7710,"lady":7711,"Over":7712,"losing":7713,"Imp":7714,"TE":7715,"cement":7716,"orders":7717,"couple":7718,"upon":7719,"asses":7720,"special":7721,"WHAT":7722,"charge":7723,"Rom":7724,"cops":7725,"sof":7726,"ongino":7727,"Read":7728,"za":7729,"acts":7730,"Tell":7731,"inte":7732,"conne":7733,"citizen":7734,"investigation":7735,"earth":7736,"boys":7737,"RINO":7738,"Florida":7739,"paying":7740,"ience":7741,"oh":7742,"rap":7743,"THEM":7744,"courts":7745,"based":7746,"economy":7747,"IVE":7748,"ided":7749,"STOP":7750,"certif":7751,"killing":7752,"ife":7753,"yeah":7754,"trash":7755,"taxes":7756,"berg":7757,"NEWS":7758,"surprised":7759,"fine":7760,"ened":7761,"hahahaha":7762,"Ma":7763,"rally":7764,"oss":7765,"finally":7766,"Ph":7767,"SA":7768,"mad":7769,"Im":7770,"ns":7771,"riots":7772,"nut":7773,"udy":7774,"biggest":7775,"coup":7776,"praying":7777,"kes":7778,"followers":7779,"battle":7780,"administration":7781,"hero":7782,"schools":7783,"simply":7784,"PAT":7785,"conspir":7786,"early":7787,"cording":7788,"fox":7789,"Tra":7790,"aming":7791,"narrative":7792,"Gates":7793,"deaths":7794,"Government":7795,"weap":7796,"Amaz":7797,"ls":7798,"literally":7799,"soul":7800,"COUN":7801,"hus":7802,"blow":7803,"Prob":7804,"intellig":7805,"qui":7806,"socialism":7807,"YE":7808,"lied":7809,"!!!!!!":7810,"Lives":7811,"destroyed":7812,"UK":7813,"mist":7814,"Need":7815,"education":7816,"HO":7817,"QU":7818,"Char":7819,"videos":7820,"General":7821,"DEMOCRAT":7822,"عل":7823,"RED":7824,"terrorists":7825,"ault":7826,"January":7827,"Ju":7828,"Nice":7829,"Satan":7830,"تو":7831,"det":7832,"thousands":7833,"ender":7834,"Lock":7835,"Really":7836,"Post":7837,"fit":7838,"tra":7839,"except":7840,"food":7841,"beginning":7842,"later":7843,"ief":7844,"counting":7845,"created":7846,"Same":7847,"ALLY":7848,"Jim":7849,"bought":7850,"irth":7851,"racism":7852,"yesterday":7853,"cuss":7854,"ffer":7855,"igno":7856,"Trumps":7857,"JUST":7858,"sleep":7859,"مر":7860,"cri":7861,"ura":7862,"arently":7863,"weak":7864,"exposed":7865,"community":7866,"questions":7867,"ilies":7868,"supporter":7869,"pandemic":7870,"Rus":7871,"tern":7872,"Port":7873,"remove":7874,"partic":7875,"gives":7876,"Give":7877,"bank":7878,"enfor":7879,"Stay":7880,"reality":7881,"accountable":7882,"Jack":7883,"emocracy":7884,"lea":7885,"shouldn":7886,"Someone":7887,"umer":7888,"ently":7889,"traff":7890,"fired":7891,"Still":7892,"FRA":7893,"اس":7894,"immedi":7895,"Cap":7896,"estic":7897,"RO":7898,"event":7899,"iting":7900,"Google":7901,"Bro":7902,"KAG":7903,"shole":7904,"fan":7905,"blind":7906,"****":7907,"Damn":7908,"ahead":7909,"bud":7910,"normal":7911,"ivers":7912,"ELECTION":7913,"Glad":7914,"church":7915,"cry":7916,"starting":7917,"Ger":7918,"Try":7919,"billion":7920,"banned":7921,"usion":7922,"END":7923,"super":7924,"clown":7925,"heads":7926,"Fun":7927,"firm":7928,"Mor":7929,"REP":7930,"ports":7931,"massive":7932,"rate":7933,"arm":7934,"cuted":7935,"ANTIFA":7936,"barr":7937,"🙏🏻🙏🏻":7938,"tem":7939,"reach":7940,"hole":7941,"daily":7942,"Hollywood":7943,"commie":7944,"Wr":7945,"usa":7946,"courage":7947,"pan":7948,"ined":7949,"anon":7950,"loved":7951,"difference":7952,"posting":7953,"ignorant":7954,"Could":7955,"ppl":7956,"choose":7957,"fraudulent":7958,"supporting":7959,"husband":7960,"gov":7961,"dollars":7962,"Cru":7963,"pati":7964,"hurt":7965,"Fl":7966,"علي":7967,"actual":7968,"PATRIOT":7969,"record":7970,"THER":7971,"basement":7972,"MUST":7973,"ouch":7974,"cele":7975,"showing":7976,"BO":7977,"💥💥":7978,"ises":7979,"Isra":7980,"simple":7981,"chan":7982,"imagine":7983,"BLE":7984,"EV":7985,"Mon":7986,"itten":7987,"destroying":7988,"Pennsylvania":7989,"whe":7990,"yle":7991,"mob":7992,"quite":7993,"lly":7994,"carry":7995,"victim":7996,"necess":7997,"Gov":7998,"controll":7999,"communism":8000,"aster":8001,"example":8002,"round":8003,"OK":8004,"several":8005,"stolen":8006,"ived":8007,"vior":8008,"Coll":8009,"utes":8010,"appreci":8011,"families":8012,"stick":8013,"Wake":8014,"lic":8015,"sequ":8016,"reco":8017,"lawy":8018,"moment":8019,"college":8020,"immigr":8021,"MIN":8022,"omb":8023,"putting":8024,"FRAUD":8025,"town":8026,"James":8027,"PL":8028,"pup":8029,"rock":8030,"abl":8031,"conced":8032,"attempt":8033,"surprise":8034,"90":8035,"blm":8036,"SU":8037,"inno":8038,"itor":8039,"nell":8040,"annity":8041,"Liberal":8042,"hours":8043,"Rudy":8044,"WT":8045,"hot":8046,"ring":8047,"Way":8048,"evin":8049,"reading":8050,"ACT":8051,"OULD":8052,"science":8053,"Tot":8054,"sir":8055,"Many":8056,"PO":8057,"date":8058,"wga":8059,"witness":8060,"judges":8061,"changed":8062,"Epstein":8063,"direct":8064,"FR":8065,"🔥🔥":8066,"nobody":8067,"box":8068,"responsible":8069,"hosp":8070,"population":8071,"beyond":8072,"Wood":8073,"ulti":8074,"dick":8075,"ering":8076,"Newsmax":8077,"Thanksgiving":8078,"بت":8079,"ando":8080,"worry":8081,"fel":8082,"present":8083,"dangerous":8084,"Bolsonaro":8085,"cir":8086,"dirty":8087,"deed":8088,"beg":8089,"gotten":8090,"Ped":8091,"دی":8092,"interesting":8093,"itim":8094,"lims":8095,"outside":8096,"grity":8097,"Praying":8098,"Russi":8099,"sounds":8100,"ouble":8101,"promised":8102,"COMM":8103,"hael":8104,"pping":8105,"screw":8106,"rd":8107,"celebr":8108,"zz":8109,"ani":8110,"balls":8111,"counted":8112,"umbag":8113,"scared":8114,"77":8115,"g1":8116,"KNOW":8117,"formed":8118,"forever":8119,"candidate":8120,"Federal":8121,"Ed":8122,"از":8123,"oooo":8124,"lines":8125,"guilty":8126,"DNC":8127,"anna":8128,"1st":8129,"Senator":8130,"anim":8131,"BRE":8132,"CI":8133,"iod":8134,"pack":8135,"ridiculous":8136,"aught":8137,"disgrace":8138,"ishment":8139,"color":8140,"rif":8141,"کن":8142,"vile":8143,"عن":8144,"ctions":8145,"large":8146,"Portland":8147,"Evil":8148,"JO":8149,"KK":8150,"llen":8151,"uty":8152,"ising":8153,"suffer":8154,"create":8155,"Leg":8156,"cure":8157,"neigh":8158,"Proud":8159,"Fam":8160,"pathetic":8161,"23":8162,"loves":8163,"USE":8164,"apps":8165,"Ill":8166,"TW":8167,"eye":8168,"NEED":8169,"compan":8170,"g1wga":8171,"cam":8172,"REAT":8173,"Demon":8174,"icial":8175,"nos":8176,"shock":8177,"AKING":8178,"clearly":8179,"الا":8180,"fasc":8181,"paper":8182,"ugly":8183,"FOX":8184,":)":8185,"ذا":8186,"above":8187,"ked":8188,"reve":8189,"asshole":8190,"radical":8191,"repe":8192,"moving":8193,"vin":8194,"CT":8195,"Lin":8196,"landslide":8197,"akening":8198,"ksa":8199,"met":8200,"appro":8201,"immediately":8202,"remind":8203,"sug":8204,"drain":8205,"رف":8206,"thug":8207,"quit":8208,"core":8209,"cen":8210,"middle":8211,"hoax":8212,"DER":8213,"journal":8214,"ream":8215,"assh":8216,"polls":8217,"Muslim":8218,"Israel":8219,"CL":8220,"wind":8221,"الح":8222,"senate":8223,"MORE":8224,"covered":8225,"compet":8226,"movement":8227,"lack":8228,"tee":8229,"homes":8230,"VP":8231,"lan":8232,"Report":8233,"Kill":8234,"pes":8235,"everywhere":8236,"Hopefully":8237,".......":8238,"coronavirus":8239,"type":8240,"wwg1wga":8241,"ico":8242,"mayor":8243,"مي":8244,"return":8245,"locked":8246,"benef":8247,"Wait":8248,"card":8249,"cance":8250,"failed":8251,"COR":8252,"els":8253,"Tod":8254,"const":8255,"raise":8256,"prep":8257,"meme":8258,"Hit":8259,"والله":8260,"kets":8261,"enemies":8262,"Ted":8263,"YES":8264,"nes":8265,"ury":8266,"charged":8267,"Sure":8268,"tact":8269,"ica":8270,"road":8271,"About":8272,"daughter":8273,"names":8274,"beha":8275,"eless":8276,"مش":8277,"revol":8278,"Brit":8279,"Best":8280,"gain":8281,"💩💩":8282,"ASE":8283,"Voter":8284,"Steal":8285,"assu":8286,"DEM":8287,"Col":8288,"Blue":8289,"problems":8290,"groups":8291,"companies":8292,"Bu":8293,"data":8294,"mot":8295,"ledge":8296,"Tech":8297,"fu":8298,"tonight":8299,"Ball":8300,"fem":8301,"profess":8302,"private":8303,"2nd":8304,"bage":8305,"interview":8306,"cellent":8307,"WAR":8308,"belong":8309,"followed":8310,"success":8311,"Chic":8312,"mir":8313,"ITY":8314,"amoun":8315,"ONG":8316,"winning":8317,"MENT":8318,"none":8319,"iously":8320,"Ass":8321,"Paul":8322,"dude":8323,"uation":8324,"nel":8325,"LOVE":8326,"Rev":8327,"aled":8328,"critic":8329,"cant":8330,"ctors":8331,"seless":8332,"holding":8333,"RIGHT":8334,"rob":8335,"Ind":8336,"greatest":8337,"Awesome":8338,"Got":8339,"gre":8340,"ication":8341,"antly":8342,"izing":8343,"address":8344,"certainly":8345,"destruction":8346,"AZ":8347,"thy":8348,"fellow":8349,"WAS":8350,"Save":8351,"lex":8352,"quer":8353,"funding":8354,"AGAIN":8355,"babies":8356,"property":8357,"Ari":8358,"Max":8359,"seriously":8360,"75":8361,"BUT":8362,"!!!!!!!!":8363,"bot":8364,"obviously":8365,"culture":8366,"innocent":8367,"3rd":8368,"66":8369,"Str":8370,"Isn":8371,"conspiracy":8372,"Yet":8373,"vir":8374,"اع":8375,"armed":8376,"owned":8377,"reported":8378,"undred":8379,"Lou":8380,"sem":8381,"proven":8382,"Lad":8383,"clos":8384,"haps":8385,"manip":8386,"capital":8387,"El":8388,"aven":8389,"dra":8390,"🖕🖕":8391,"recent":8392,"orig":8393,"host":8394,"domestic":8395,"silent":8396,"catch":8397,"missed":8398,"Hannity":8399,"ram":8400,"listening":8401,"ford":8402,"olf":8403,"Michael":8404,"lap":8405,"tells":8406,"Unfortunately":8407,"discuss":8408,"TRY":8409,"decades":8410,"Cruz":8411,"du":8412,"لك":8413,"forced":8414,"liar":8415,"insane":8416,"Conservative":8417,"Roberts":8418,"resist":8419,"idency":8420,"ears":8421,"Net":8422,"army":8423,"crew":8424,"BER":8425,"neg":8426,"🇺🇲🇺🇲":8427,"DA":8428,"amed":8429,"stri":8430,"arant":8431,"major":8432,"multi":8433,"دم":8434,"sored":8435,"violent":8436,"hack":8437,"alleg":8438,"TRA":8439,"brainwash":8440,"anity":8441,"scumbag":8442,"docu":8443,"movie":8444,"Child":8445,"calls":8446,"memes":8447,"Gi":8448,"WTF":8449,"33":8450,"اج":8451,"acting":8452,"honor":8453,"IE":8454,"Rac":8455,"integrity":8456,"انت":8457,"tware":8458,"ride":8459,"crow":8460,"response":8461,"👏👏👏👏":8462,"Him":8463,"Which":8464,"insur":8465,"Dec":8466,"slow":8467,"pushing":8468,"sucks":8469,"kept":8470,"rigged":8471,"Probably":8472,"touch":8473,"drink":8474,"ison":8475,"Must":8476,"Treason":8477,"Gra":8478,"tes":8479,"breaking":8480,"purpose":8481,"Uk":8482,"inside":8483,"Nazi":8484,"consequ":8485,"VIDEO":8486,"MI":8487,"cuse":8488,"Wallace":8489,"Ariz":8490,"smo":8491,"bel":8492,"democracy":8493,"rise":8494,"building":8495,"organization":8496,"Romney":8497,"ille":8498,"TRUTH":8499,"appear":8500,"iers":8501,"deli":8502,"establ":8503,"alive":8504,"STE":8505,"looked":8506,"politician":8507,"jack":8508,"THEIR":8509,"Mur":8510,"pod":8511,"bye":8512,"Explo":8513,"voc":8514,"barrass":8515,"Nope":8516,"base":8517,"waste":8518,"among":8519,"pract":8520,"speaking":8521,"street":8522,"👏🏻👏🏻":8523,"PS":8524,"bing":8525,"dad":8526,"fare":8527,"Once":8528,"angry":8529,"serve":8530,"Global":8531,"Tweet":8532,"release":8533,"Afr":8534,"seat":8535,"accounts":8536,"program":8537,"believable":8538,"Team":8539,"ken":8540,"وو":8541,"iday":8542,"asty":8543,"ACE":8544,"target":8545,"necessary":8546,"Fin":8547,"influ":8548,"liberty":8549,"Hello":8550,"Laura":8551,"FIGHT":8552,"SHIT":8553,"مت":8554,"incre":8555,"rection":8556,"vert":8557,"pected":8558,"aging":8559,"expose":8560,"minutes":8561,"Hmm":8562,"Ken":8563,"اب":8564,"garbage":8565,"field":8566,"وش":8567,"doctr":8568,"urope":8569,"ICK":8570,"TIME":8571,"refuse":8572,"Says":8573,"pa":8574,"snow":8575,"allies":8576,"pra":8577,"oken":8578,"electoral":8579,"vaccines":8580,"sac":8581,"tin":8582,"handle":8583,"charges":8584,"NYC":8585,"Arizona":8586,"birth":8587,"aker":8588,"sharing":8589,"ORT":8590,"ESS":8591,"Agreed":8592,"zero":8593,"webs":8594,"While":8595,"Schiff":8596,"appointed":8597,"gas":8598,"crack":8599,"ples":8600,"athol":8601,"David":8602,"crooked":8603,"religion":8604,"medical":8605,"PP":8606,"Wal":8607,"pred":8608,"psy":8609,"inated":8610,"isy":8611,"track":8612,"Start":8613,"ential":8614,"officers":8615,"boycott":8616,"cutive":8617,"Million":8618,"Ty":8619,"ior":8620,"ky":8621,"according":8622,"pissed":8623,"BACK":8624,"WIN":8625,"bow":8626,"star":8627,"Hahaha":8628,"County":8629,"joined":8630,"Nob":8631,"fru":8632,"sim":8633,"amendment":8634,"agate":8635,"committed":8636,"keeps":8637,"AMERICAN":8638,"keeping":8639,"Judge":8640,"bastards":8641,"BY":8642,"List":8643,"views":8644,"Ri":8645,"Sick":8646,"bol":8647,"dump":8648,"sports":8649,"acter":8650,"result":8651,"democratic":8652,"played":8653,"extreme":8654,"Family":8655,"Chicago":8656,"donald":8657,"cool":8658,"Sean":8659,"reporting":8660,"Arrest":8661,"Merry":8662,"refer":8663,"profile":8664,"concede":8665,"Sun":8666,"esters":8667,"itself":8668,"Amendment":8669,"possib":8670,"current":8671,"Ukrain":8672,"Explore":8673,"vant":8674,"wel":8675,"defund":8676,"announ":8677,"Canada":8678,"Always":8679,"oath":8680,"cies":8681,"stock":8682,"posing":8683,"cheated":8684,"Aust":8685,"Bull":8686,"NFL":8687,"يي":8688,"bri":8689,"iam":8690,"nur":8691,"source":8692,"vs":8693,"بال":8694,"ente":8695,"UL":8696,"letting":8697,"cross":8698,"audit":8699,"decision":8700,"ded":8701,"istic":8702,"grap":8703,"However":8704,"PLE":8705,"مو":8706,"planned":8707,"IDE":8708,"Mayor":8709,"dominion":8710,"Hold":8711,"ulations":8712,"sue":8713,"claims":8714,"26":8715,"fing":8716,"kag":8717,"loss":8718,"enforcement":8719,"Since":8720,"dece":8721,"knowing":8722,"sides":8723,"Sho":8724,"pical":8725,"inos":8726,"morrow":8727,"Lead":8728,"decide":8729,"***":8730,"freedoms":8731,"Mitch":8732,"anc":8733,"aware":8734,"blacks":8735,"Hy":8736,"sme":8737,"tweet":8738,"secret":8739,"lder":8740,"ussy":8741,"Anti":8742,"written":8743,"NOTHING":8744,"prevent":8745,"Two":8746,"pig":8747,"county":8748,"workers":8749,"presidential":8750,"1776":8751,"VES":8752,"trouble":8753,"CHIN":8754,"protection":8755,"drive":8756,"Today":8757,"behavior":8758,"hundred":8759,"tomorrow":8760,"china":8761,"embarrass":8762,"feeling":8763,"machine":8764,"NBC":8765,"Europe":8766,"Us":8767,"WA":8768,"اد":8769,"allowing":8770,"bat":8771,"active":8772,"trad":8773,"write":8774,"Times":8775,"OAN":8776,"prin":8777,"woke":8778,"helping":8779,"HELL":8780,"victory":8781,"ana":8782,"bes":8783,"lolo":8784,"poc":8785,"thoughts":8786,"girls":8787,"OFF":8788,"Bring":8789,"stealing":8790,"Bush":8791,"DAY":8792,"HER":8793,"ja":8794,"lson":8795,"tos":8796,"lets":8797,"ONLY":8798,"igned":8799,"spec":8800,"moral":8801,"general":8802,"BREAKING":8803,"🚨🚨":8804,"era":8805,"complain":8806,"treasonous":8807,"Wonder":8808,"quickly":8809,"قي":8810,"ENCE":8811,"official":8812,"places":8813,"leadership":8814,"minds":8815,"Muslims":8816,"released":8817,"closed":8818,"lay":8819,"ري":8820,"iced":8821,"wealth":8822,"loye":8823,"meant":8824,"uma":8825,"اللي":8826,"Say":8827,"atory":8828,"opport":8829,"shop":8830,"THAN":8831,"email":8832,"Peace":8833,"register":8834,"wonderful":8835,"situation":8836,"hiding":8837,"asil":8838,"belief":8839,"King":8840,"nom":8841,"قل":8842,"saf":8843,"Seems":8844,"devil":8845,"fective":8846,"bigger":8847,"creep":8848,"Bible":8849,"Mask":8850,"former":8851,"leaving":8852,"65":8853,"ته":8854,"ining":8855,"store":8856,"STAND":8857,"accompl":8858,"ilt":8859,"Jeff":8860,"horrible":8861,"2021":8862,"further":8863,"BU":8864,"IZ":8865,"jump":8866,"که":8867,"aug":8868,"cts":8869,"mao":8870,"challen":8871,"Doesn":8872,"skin":8873,"points":8874,"Dur":8875,"HIS":8876,"hi":8877,"ba":8878,"bc":8879,"حد":8880,"كم":8881,"alty":8882,"ensive":8883,"McCon":8884,"Votes":8885,"Voting":8886,"switch":8887,"الي":8888,"coward":8889,"appreciate":8890,"asing":8891,"FROM":8892,"Fire":8893,"Life":8894,"nock":8895,"corpor":8896,"mission":8897,"Know":8898,"cia":8899,"ibut":8900,"sch":8901,"wanna":8902,"ered":8903,"finan":8904,"MED":8905,"REAL":8906,"Russian":8907,"communists":8908,"mainstream":8909,"Socialist":8910,"hoping":8911,"software":8912,"trafficking":8913,"Send":8914,"anch":8915,"itar":8916,"BLIC":8917,"ift":8918,"Trust":8919,"dependent":8920,"Such":8921,"hol":8922,"tough":8923,"asy":8924,"leftists":8925,"effect":8926,"author":8927,"amount":8928,"consequences":8929,"Sir":8930,"WN":8931,"ows":8932,"yours":8933,"ARS":8934,"Guess":8935,"controlled":8936,"Graham":8937,"DIS":8938,"tv":8939,"Hel":8940,"stands":8941,"matters":8942,"Haha":8943,"tyranny":8944,"Virus":8945,"Mu":8946,"Makes":8947,"arms":8948,"iro":8949,"prim":8950,"Something":8951,"deter":8952,"satan":8953,"veter":8954,"loc":8955,"however":8956,"access":8957,"decided":8958,"gay":8959,"pill":8960,"tal":8961,"agen":8962,"این":8963,"spin":8964,"scam":8965,"Video":8966,"sun":8967,"convers":8968,"impos":8969,"DonaldTrump":8970,"believes":8971,"Funny":8972,"whether":8973,"Found":8974,"Ow":8975,"SUP":8976,"dro":8977,"infe":8978,"suits":8979,"asio":8980,"illi":8981,"exp":8982,"hospital":8983,"Alex":8984,"🙏🇺🇸":8985,"admit":8986,"trave":8987,"risk":8988,"Gre":8989,"ient":8990,"oid":8991,"بی":8992,"شه":8993,"Cha":8994,"prayers":8995,"burning":8996,"Holy":8997,"Hang":8998,"South":8999,"WAT":9000,"abuse":9001,"ulate":9002,"career":9003,"website":9004,"84":9005,"🇬🇧":9006,"tro":9007,"cli":9008,"equ":9009,"icide":9010,"morons":9011,"Agree":9012,"2018":9013,"pedophile":9014,"Better":9015,"Nobody":9016,"SP":9017,"sitting":9018,"gressive":9019,"uk":9020,"xy":9021,"cancer":9022,"shooting":9023,"suspend":9024,"ignore":9025,"اه":9026,"ailable":9027,"Def":9028,"received":9029,"Hum":9030,"clo":9031,"cold":9032,"logical":9033,"North":9034,"eli":9035,"ita":9036,"ota":9037,"defe":9038,"plus":9039,"2024":9040,"turning":9041,"Win":9042,"gs":9043,"fortrump":9044,"ested":9045,"Death":9046,"CRI":9047,"Miss":9048,"lef":9049,"anywhere":9050,"UBLIC":9051,"ii":9052,"useless":9053,"area":9054,"spend":9055,"regular":9056,"Military":9057,"Wom":9058,"INE":9059,"velop":9060,"Liberals":9061,"47":9062,"CR":9063,"pedo":9064,"😂🤣😂🤣":9065,"relevant":9066,"Bra":9067,"💯💯":9068,"enced":9069,"PATRIOTS":9070,"wis":9071,"compromised":9072,"livesmatter":9073,"concerned":9074,"Civ":9075,"شي":9076,"often":9077,"igher":9078,"ceed":9079,"thugs":9080,"worried":9081,"abortion":9082,"McConnell":9083,"sess":9084,"اني":9085,"cution":9086,"rum":9087,"verse":9088,"reng":9089,"Secret":9090,"avy":9091,"protests":9092,"impeachment":9093,"Ev":9094,"Sur":9095,"kn":9096,"atr":9097,"provid":9098,"March":9099,"Everything":9100,"individual":9101,"itimate":9102,"assholes":9103,"!”":9104,"EL":9105,"Imag":9106,"MAR":9107,"ican":9108,"minute":9109,"censored":9110,"HAS":9111,"hates":9112,"ju":9113,"ener":9114,"powerful":9115,"defense":9116,"Coronavirus":9117,"ITE":9118,"Yup":9119,"🤔🤔":9120,"🇧🇷🇧🇷":9121,"GREAT":9122,"equal":9123,"دار":9124,"astic":9125,"icked":9126,"icted":9127,"Order":9128,"signed":9129,"Lady":9130,"Matt":9131,"Pri":9132,"path":9133,"atures":9134,"excuse":9135,"😡😡😡😡":9136,"particip":9137,"sat":9138,"lived":9139,"Stupid":9140,"prayer":9141,"entia":9142,"Crim":9143,"Hitler":9144,"Cand":9145,"Mel":9146,"PER":9147,"cil":9148,"شو":9149,"ourselves":9150,"damage":9151,"cancel":9152,"EST":9153,"kiss":9154,"rog":9155,"cock":9156,"Shut":9157,"phys":9158,"spirit":9159,"educated":9160,"Swamp":9161,"spot":9162,"taxpay":9163,"Download":9164,"deliver":9165,"اك":9166,"desp":9167,"LEG":9168,"Scott":9169,"Ben":9170,"وت":9171,"🌈🌈":9172,"recount":9173,"broken":9174,"Christians":9175,"Schumer":9176,"Germany":9177,"Bab":9178,"City":9179,"Lind":9180,"rr":9181,"song":9182,"🇱🇷":9183,"tool":9184,"percent":9185,"credit":9186,"ilarious":9187,"atholic":9188,"CDC":9189,"pussy":9190,"ador":9191,"Thats":9192,"weapon":9193,"revolution":9194,"bottom":9195,",”":9196,"neck":9197,"ideas":9198,"survi":9199,"learned":9200,"employe":9201,"bastard":9202,"recogn":9203,"puppet":9204,"28":9205,"AA":9206,"Mex":9207,"Under":9208,"placed":9209,"rioters":9210,"PLEASE":9211,"taught":9212,"gotta":9213,"imple":9214,"Conservatives":9215,"COUNTRY":9216,"safety":9217,"\",":9218,"Ver":9219,"fly":9220,"icate":9221,"ads":9222,"passed":9223,"Jews":9224,"Both":9225,"authority":9226,"Bern":9227,"LER":9228,"lers":9229,"rage":9230,"🤡🤡":9231,"itmo":9232,"igger":9233,"ATES":9234,"gency":9235,"easily":9236,"network":9237,"games":9238,"يب":9239,"ances":9240,"libt":9241,"served":9242,"available":9243,"broke":9244,"investigate":9245,"bru":9246,"lat":9247,"lots":9248,"ole":9249,"loving":9250,"comput":9251,"everybody":9252,"officer":9253,"😂😂😂😂😂😂😂😂":9254,"DEMOCRATS":9255,"TRE":9256,"qanon":9257,"ça":9258,"strate":9259,"Actually":9260,"Omar":9261,"Pre":9262,"Sil":9263,"enty":9264,"amos":9265,"adm":9266,"period":9267,"ASON":9268,"AME":9269,"leading":9270,"cowards":9271,"Sa":9272,"bongino":9273,"raken":9274,"forgot":9275,"everyday":9276,"nonsense":9277,"Daily":9278,"Seriously":9279,"multiple":9280,"35":9281,"Bri":9282,"fought":9283,"prevail":9284,"Civil":9285,"(@":9286,"Screw":9287,"وق":9288,"notice":9289,"ARD":9290,"thrown":9291,"missing":9292,"Adam":9293,"OUS":9294,"uals":9295,"olution":9296,"space":9297,"scary":9298,"Fucking":9299,"pression":9300,"Durham":9301,"READ":9302,"protecting":9303,"27":9304,"BIG":9305,"MAN":9306,"bid":9307,"cat":9308,"👍🏼":9309,"omer":9310,"🤣🤣🤣🤣🤣🤣🤣🤣":9311,"____":9312,"suggest":9313,"laptop":9314,"Eric":9315,"fee":9316,"continu":9317,"protesters":9318,"Socialism":9319,"filled":9320,"Hon":9321,"II":9322,"Ya":9323,"itiz":9324,"tire":9325,"crats":9326,"consin":9327,"LIKE":9328,"FREE":9329,"donaldtrump":9330,"gan":9331,"iev":9332,"فت":9333,"acted":9334,"letter":9335,"threats":9336,"Didn":9337,"Bad":9338,"Ear":9339,"Other":9340,"Open":9341,"ao":9342,"👏🏼":9343,"march":9344,"Support":9345,"Ru":9346,"delet":9347,"conven":9348,"truck":9349,"WHY":9350,"facebook":9351,"lockdowns":9352,"!\"":9353,"Es":9354,"Fre":9355,"gender":9356,"illy":9357,"ITS":9358,"mmer":9359,"experience":9360,"policy":9361,"policies":9362,"WO":9363,"bail":9364,"dele":9365,"winner":9366,"LAW":9367,"Wis":9368,"cab":9369,"ders":9370,"mic":9371,"vice":9372,"accur":9373,"rett":9374,"worthless":9375,"Ukraine":9376,"88":9377,"Sand":9378,"aling":9379,"meaning":9380,"OMG":9381,"kicked":9382,"BR":9383,"Que":9384,"fant":9385,"نف":9386,"disagree":9387,"parlerksa":9388,"walking":9389,"treated":9390,"neighbor":9391,"showed":9392,"character":9393,"weren":9394,"Camp":9395,"ias":9396,"aters":9397,"unk":9398,"ause":9399,"identif":9400,"DOWN":9401,"🙏🙏🙏🙏":9402,"higher":9403,"mes":9404,"tit":9405,"uli":9406,"istle":9407,"helped":9408,"values":9409,"Terror":9410,"gather":9411,"ore":9412,"Nov":9413,"attor":9414,"pardon":9415,"allows":9416,"prosecuted":9417,"EE":9418,"FT":9419,"became":9420,"liz":9421,"likes":9422,"okay":9423,"Church":9424,"GOOD":9425,"Brasil":9426,"prepared":9427,"Kemp":9428,"حت":9429,"كن":9430,"andal":9431,"anta":9432,"enez":9433,"Hu":9434,"History":9435,"Sto":9436,"fish":9437,"season":9438,"COMMUN":9439,"attorney":9440,"POL":9441,"ey":9442,"ni":9443,"aly":9444,"harm":9445,"🤬🤬🤬🤬":9446,"yrs":9447,"Pret":9448,"somewhere":9449,"teachers":9450,"losers":9451,"effective":9452,"OVER":9453,"Venez":9454,"option":9455,"anybody":9456,"continues":9457,"intelligence":9458,"Imagine":9459,"6th":9460,"Mag":9461,"Rich":9462,"RUP":9463,"ease":9464,"ORS":9465,"على":9466,"EVIL":9467,"Live":9468,"loud":9469,"pers":9470,"acher":9471,"stole":9472,"?!?":9473,"StopThe":9474,"globalist":9475,"KS":9476,"ولا":9477,"stated":9478,"streng":9479,"ucks":9480,"governors":9481,"dying":9482,"pure":9483,"lee":9484,"Been":9485,"GR":9486,"IV":9487,"aver":9488,"mel":9489,"THESE":9490,"guage":9491,"awakening":9492,"favorite":9493,"95":9494,"plans":9495,"chaos":9496,"double":9497,"icit":9498,"thats":9499,"drag":9500,"Shit":9501,"74":9502,"Old":9503,"ller":9504,"ept":9505,"brave":9506,"visit":9507,"Carlson":9508,"freak":9509,"aur":9510,"duty":9511,"otherwise":9512,"McC":9513,"faces":9514,"WATCH":9515,"deleted":9516,"اخ":9517,"کر":9518,"outcome":9519,"worn":9520,"mostly":9521,"Father":9522,"🤦🏻":9523,"chick":9524,"limate":9525,"platforms":9526,"Tweeted":9527,"Talk":9528,"sight":9529,"parties":9530,"snowfl":9531,"provide":9532,"Last":9533,"Wish":9534,"knowledge":9535,"intention":9536,"lawsuit":9537,"busy":9538,"mistake":9539,"Cra":9540,"Sus":9541,"URE":9542,"online":9543,"subs":9544,"iving":9545,"symp":9546,"biased":9547,"EM":9548,"San":9549,"goal":9550,"repor":9551,"buying":9552,"condition":9553,"fools":9554,"Boys":9555,"planet":9556,"Constitutional":9557,"illiant":9558,"gate":9559,"ato":9560,"built":9561,"Bor":9562,"sort":9563,"xit":9564,"🐌🐌":9565,"isa":9566,"broad":9567,"deserves":9568,"ification":9569,"nasty":9570,"third":9571,"separ":9572,"books":9573,"towards":9574,"hatred":9575,"Jr":9576,"Vir":9577,"andemic":9578,"trumptrain":9579,"regon":9580,"diffic":9581,"dictator":9582,"Impeach":9583,"Citiz":9584,"STATE":9585,"Liberty":9586,"eous":9587,"ville":9588,"Thom":9589,"internet":9590,"Att":9591,"Corrupt":9592,"CORRUP":9593,"WANT":9594,"❤❤":9595,"ories":9596,"tie":9597,"Disgusting":9598,"Em":9599,"Gun":9600,"thru":9601,"price":9602,"crib":9603,"ulated":9604,"الس":9605,"raised":9606,"market":9607,"Commie":9608,"popular":9609,"ses":9610,"informed":9611,"saved":9612,"HOW":9613,"LOS":9614,"gg":9615,"indoctr":9616,"usual":9617,"confir":9618,"personally":9619,"appears":9620,"Bernie":9621,"tf":9622,"ano":9623,"lect":9624,"feet":9625,"LET":9626,"apparently":9627,"breath":9628,"checked":9629,"Home":9630,"Being":9631,"humanity":9632,"covid19":9633,"interested":9634,"opportunity":9635,"eff":9636,"mart":9637,"bell":9638,"terrible":9639,"specially":9640,"Enough":9641,"screen":9642,"slaves":9643,"possibly":9644,"Help":9645,"UTION":9646,"pu":9647,"ision":9648,"🇺🇸🦅":9649,"Army":9650,"Offic":9651,"declare":9652,"pm":9653,"liars":9654,"ented":9655,"FREED":9656,"REPUBLIC":9657,"lun":9658,"OUG":9659,"Enjoy":9660,"loyd":9661,"original":9662,"رب":9663,"onic":9664,"doctor":9665,"uela":9666,"opinions":9667,"sexual":9668,"DID":9669,"Lu":9670,"dress":9671,"كر":9672,"rey":9673,"user":9674,"prefer":9675,"rison":9676,"Children":9677,"itude":9678,"arma":9679,"apart":9680,"rioting":9681,"desper":9682,"Pretty":9683,"😁😁":9684,"inate":9685,"2019":9686,"reasons":9687,"caused":9688,"filtr":9689,"selling":9690,"BLESS":9691,"felt":9692,"Dear":9693,"Pay":9694,"va":9695,"يع":9696,"hypocrisy":9697,"music":9698,"sli":9699,"tu":9700,"aine":9701,"guard":9702,"Reg":9703,"AMEN":9704,"Excellent":9705,"bringing":9706,"vilege":9707,"uliani":9708,"cunt":9709,"ido":9710,"Zucker":9711,"bomb":9712,"yan":9713,"هو":9714,"istor":9715,"owner":9716,"wrote":9717,"swing":9718,"End":9719,"PRO":9720,"quiet":9721,"Finally":9722,"IES":9723,"Ron":9724,"border":9725,"dies":9726,"اص":9727,"اق":9728,"ander":9729,"ara":9730,"shown":9731,"THERE":9732,"aked":9733,"gue":9734,"Amazing":9735,"zi":9736,"andon":9737,"Newsom":9738,"Corru":9739,"FORE":9740,"بعد":9741,"language":9742,"!?":9743,"29":9744,"55":9745,"Demo":9746,"Far":9747,"Light":9748,"Power":9749,"hill":9750,"indeed":9751,"verified":9752,"responsib":9753,"jer":9754,"looting":9755,"ague":9756,"usually":9757,"Bye":9758,"UG":9759,"usive":9760,"owners":9761,"spent":9762,"Prot":9763,"version":9764,"promise":9765,"Amazon":9766,"Om":9767,"din":9768,"🖕🏻":9769,"OWN":9770,"Prayers":9771,"$$$$":9772,"PARLER":9773,"brainwashed":9774,"gang":9775,"ration":9776,"sed":9777,"twe":9778,"toler":9779,"loot":9780,"speed":9781,"warri":9782,"voices":9783,"SOME":9784,"absolute":9785,"Apparently":9786,"apolog":9787,"suspended":9788,"Kay":9789,"elder":9790,"hunter":9791,"becomes":9792,"kidding":9793,"Austral":9794,"registered":9795,"Wisconsin":9796,"wa":9797,"feelings":9798,"spreading":9799,"stories":9800,"ews":9801,"sometimes":9802,"supports":9803,"Shame":9804,".,":9805,"Especially":9806,"iti":9807,"propri":9808,"addy":9809,"retard":9810,"lawyers":9811,"Ell":9812,"Jer":9813,"West":9814,"cup":9815,"vive":9816,"obama":9817,"electionfraud":9818,"threatened":9819,"twice":9820,"Maj":9821,"4th":9822,"Ever":9823,"fault":9824,"كي":9825,"aries":9826,"lier":9827,"effort":9828,"sentence":9829,"Jewish":9830,"dogs":9831,"confused":9832,"laughing":9833,"atural":9834,"Totally":9835,"Mass":9836,"shad":9837,"مه":9838,"نی":9839,"indust":9840,"LLOW":9841,"joebiden":9842,"Presidential":9843,"screwed":9844,"Listen":9845,"Bongino":9846,"Ham":9847,"TAKE":9848,"virt":9849,"😆😆":9850,"mos":9851,"changes":9852,"Steve":9853,"Oregon":9854,"سي":9855,"عش":9856,"becoming":9857,"!!!!!!!":9858,"ARY":9859,"mais":9860,"Seattle":9861,"akenews":9862,"attacks":9863,"slavery":9864,"--------":9865,"augur":9866,"conversation":9867,"elimin":9868,"Bus":9869,"TA":9870,"seek":9871,"systems":9872,"Looking":9873,"cash":9874,"emer":9875,"ables":9876,"mentally":9877,"interference":9878,"Yea":9879,"lower":9880,"اف":9881,"develop":9882,"Obam":9883,"British":9884,"69":9885,"Abr":9886,"Ir":9887,"Land":9888,"tre":9889,"نه":9890,"🙌🏻":9891,"resign":9892,"valid":9893,"sending":9894,"required":9895,"growing":9896,"Against":9897,"draw":9898,"crowd":9899,"بح":9900,"ases":9901,"sud":9902,"plenty":9903,"presidency":9904,"limits":9905,"TREASON":9906,"mid":9907,"ulus":9908,"ization":9909,"Inst":9910,"perpet":9911,"Beautiful":9912,"2022":9913,"document":9914,"600":9915,"Kim":9916,"Sal":9917,"focus":9918,"LED":9919,"apped":9920,"learning":9921,"setting":9922,"viously":9923,"require":9924,"Venezuela":9925,"Dor":9926,"vac":9927,"final":9928,"attacked":9929,"suspect":9930,"generation":9931,"Robert":9932,"similar":9933,"Walk":9934,"ect":9935,"Blasio":9936,"solution":9937,"empty":9938,"Trans":9939,"2A":9940,"Vacc":9941,"ões":9942,"anarch":9943,"asha":9944,"neither":9945,"uni":9946,"bling":9947,"nuts":9948,"channel":9949,"73":9950,"Pet":9951,"ento":9952,"ental":9953,"Communism":9954,"Leftist":9955,"ABOUT":9956,"argument":9957,"Dire":9958,"Next":9959,"whel":9960,"asure":9961,"loose":9962,"noticed":9963,"crying":9964,"disease":9965,"perman":9966,"CHE":9967,"Frank":9968,"Attor":9969,"subject":9970,"aaaa":9971,"sources":9972,"Attorney":9973,"==":9974,"table":9975,"owers":9976,"agram":9977,"covering":9978,"funded":9979,"princi":9980,"FI":9981,"bod":9982,"ours":9983,"🇺🇸🇺🇸🇺🇸🇺🇸🇺🇸":9984,"pieces":9985,"Bitch":9986,"FAKE":9987,"Run":9988,"Tw":9989,"pi":9990,"wave":9991,"zer":9992,"butt":9993,"suicide":9994,"ries":9995,"wondering":9996,"Plan":9997,"East":9998,"cum":9999,"naz":10000,"reign":10001,"worship":10002,"oked":10003,"strength":10004,"Ap":10005,"Hor":10006,"SAY":10007,"fakenews":10008,"hid":10009,"pal":10010,"🤷🏻":10011,"encour":10012,"comfort":10013,"ception":10014,"ests":10015,"🙏🙏🙏":10016,"44":10017,"Hate":10018,"HIM":10019,"Idi":10020,"shed":10021,"agre":10022,"grab":10023,"commies":10024,"Exe":10025,"illegals":10026,"itol":10027,"squad":10028,"erc":10029,"edge":10030,"leigh":10031,"guarant":10032,"afford":10033,"starts":10034,"Thomas":10035,"Turn":10036,"مس":10037,"stage":10038,"sets":10039,"depart":10040,"está":10041,"owns":10042,"contact":10043,"Ask":10044,"Johnson":10045,"tested":10046,"DJ":10047,"Use":10048,"dream":10049,"👍🇺🇸":10050,"plant":10051,"suprem":10052,"Friday":10053,"stupidity":10054,"ideology":10055,"drugs":10056,"animals":10057,"hundreds":10058,"Gate":10059,"Hard":10060,"SHE":10061,"eth":10062,"gent":10063,"altern":10064,"offee":10065,"herself":10066,"ooo":10067,"weekend":10068,"glish":10069,"JOE":10070,"500":10071,"Los":10072,"NWO":10073,"hic":10074,"lif":10075,"righteous":10076,"?????":10077,"kills":10078,"feels":10079,"July":10080,"iversity":10081,"Jones":10082,"mploy":10083,"medic":10084,"ENS":10085,"accident":10086,"basically":10087,"bias":10088,"honestly":10089,"tyrants":10090,"NBA":10091,"sudden":10092,"))":10093,"Rum":10094,"hilarious":10095,"ners":10096,"sister":10097,"electr":10098,"SEE":10099,"dollar":10100,"decisions":10101,"Bob":10102,"Catholic":10103,"Dumb":10104,"Had":10105,"sters":10106,"spell":10107,"msm":10108,"Rights":10109,"moder":10110,"cribe":10111,"computer":10112,"”,":10113,"counter":10114,"project":10115,"Shar":10116,"treatment":10117,"regardless":10118,"intelligent":10119,"tle":10120,"عي":10121,"Chief":10122,"TRAIT":10123,"CHINA":10124,"Virgin":10125,"WON":10126,"recall":10127,"weird":10128,"united":10129,"shar":10130,"highest":10131,"horse":10132,"cript":10133,"accurate":10134,"difficult":10135,"Du":10136,"Mail":10137,"rallies":10138,"island":10139,"ruct":10140,"google":10141,"confirm":10142,"Prote":10143,"supported":10144,"slave":10145,"entertain":10146,"1000":10147,"72":10148,"Gitmo":10149,"hous":10150,"ultim":10151,"Defin":10152,"occur":10153,"storm":10154,"LOR":10155,"var":10156,"شت":10157,"stim":10158,"tray":10159,"Star":10160,"restaur":10161,"ordan":10162,"mighty":10163,"SHOULD":10164,"weapons":10165,"eventually":10166,"energy":10167,"Haw":10168,"لل":10169,"cons":10170,"backs":10171,"vision":10172,"lean":10173,"marx":10174,"protected":10175,"Den":10176,"Rad":10177,"Sher":10178,"gates":10179,"ches":10180,"express":10181,"whose":10182,"Investig":10183,"warning":10184,"speaks":10185,"Sadly":10186,"individuals":10187,"Wray":10188,"directly":10189,"Giuliani":10190,"Find":10191,"Mad":10192,"SER":10193,"eating":10194,"knock":10195,"🙄🙄":10196,"infiltr":10197,"dear":10198,"bother":10199,"COME":10200,"considered":10201,"itarian":10202,"Vict":10203,"ires":10204,"itors":10205,"stab":10206,"gold":10207,"appropri":10208,"extra":10209,"Dead":10210,"Contr":10211,"careful":10212,"timid":10213,"FOLLOW":10214,"Jen":10215,"عا":10216,"ados":10217,"blat":10218,"changing":10219,"pictures":10220,"related":10221,"lawyer":10222,"CIAL":10223,"High":10224,"MAT":10225,"gut":10226,"theory":10227,"estern":10228,"elite":10229,"render":10230,"definition":10231,"Syst":10232,"FREEDOM":10233,"NING":10234,"dd":10235,"hey":10236,"murdered":10237,"silence":10238,"currently":10239,"StopTheSteal":10240,"AF":10241,"Bur":10242,"Cre":10243,"Floyd":10244,"vement":10245,"thern":10246,"somebody":10247,"runs":10248,"ILD":10249,"impossible":10250,"38":10251,"tree":10252,"Ange":10253,"LEFT":10254,"helle":10255,"employees":10256,"BALL":10257,"Done":10258,"cc":10259,"ka":10260,"tho":10261,"ora":10262,"worldwide":10263,"trusted":10264,"healthy":10265,"COMMUNIST":10266,"تع":10267,"como":10268,"blah":10269,"INK":10270,"ITCH":10271,"Until":10272,"Brown":10273,"signs":10274,"www":10275,"ignorance":10276,"recently":10277,"responsibility":10278,"Cri":10279,"Tur":10280,"یه":10281,"isis":10282,"ston":10283,"explo":10284,"Chuck":10285,"icks":10286,"Going":10287,"fucked":10288,"Senators":10289,"investigated":10290,"ticket":10291,"worthy":10292,"kneel":10293,"immigrants":10294,"testing":10295,"pulled":10296,"establishment":10297,"finger":10298,"elderly":10299,"Gl":10300,"Year":10301,"west":10302,"تك":10303,"staff":10304,"overwhel":10305,"somehow":10306,"HAPP":10307,"incol":10308,"Perhaps":10309,"Interesting":10310,"advice":10311,"travel":10312,"Mom":10313,"milit":10314,"tube":10315,"بد":10316,"emails":10317,"minded":10318,"reports":10319,"american":10320,"Ballots":10321,"WOW":10322,"ki":10323,"mil":10324,"nic":10325,"😍😍":10326,"forces":10327,"ares":10328,"terms":10329,"cking":10330,"aps":10331,"funds":10332,"added":10333,"incred":10334,"Bren":10335,"Person":10336,"RIS":10337,"inf":10338,"events":10339,"Without":10340,"Office":10341,"influence":10342,"Fa":10343,"Oc":10344,"Rush":10345,"doctors":10346,"downs":10347,"VERY":10348,"Ohio":10349,"Train":10350,"Omg":10351,"Poll":10352,"secure":10353,"serving":10354,"rench":10355,"writing":10356,"legally":10357,"Traitor":10358,"female":10359,"Ga":10360,"اء":10361,"offer":10362,"opening":10363,"acceptable":10364,"Tommy":10365,"incoln":10366,"bust":10367,"san":10368,"yn":10369,"inj":10370,"lem":10371,"manu":10372,"AMERICANS":10373,"maga2020":10374,"throwing":10375,"huh":10376,"OBAM":10377,"Business":10378,"Either":10379,"Kyle":10380,"Tax":10381,"punch":10382,"ateful":10383,"exact":10384,"wanting":10385,"election2020":10386,"clue":10387,"attemp":10388,"COMP":10389,"senators":10390,"OSE":10391,"English":10392,"FIR":10393,"👇👇":10394,"crip":10395,"iled":10396,"Before":10397,"Security":10398,"privilege":10399,"meeting":10400,"district":10401,"Colle":10402,"fascist":10403,"Sunday":10404,"smell":10405,"Mem":10406,"wow":10407,"حس":10408,"ید":10409,"seats":10410,"agreat":10411,"debt":10412,"hopefully":10413,"survive":10414,"GU":10415,"yy":10416,"مد":10417,"disrespect":10418,"six":10419,"Total":10420,"extremely":10421,"Duck":10422,"nie":10423,"text":10424,"وال":10425,"below":10426,"patriotic":10427,"students":10428,"OTHER":10429,"sweet":10430,"outs":10431,"aka":10432,"blessed":10433,"deny":10434,"dumbass":10435,"teaching":10436,"Share":10437,"Secretary":10438,"School":10439,"VI":10440,"Veter":10441,"bio":10442,"cnn":10443,"histor":10444,"لی":10445,"inaugur":10446,"onto":10447,"Plus":10448,"Grand":10449,"bags":10450,"WAYS":10451,"beliefs":10452,"creepy":10453,"Rally":10454,"five":10455,"hes":10456,"wers":10457,"dev":10458,"ALS":10459,"Super":10460,"harass":10461,"Poor":10462,"78":10463,"Lmao":10464,"WAKE":10465,"anal":10466,"icated":10467,"ung":10468,"ista":10469,"constit":10470,"ria":10471,"wont":10472,"Represent":10473,"employ":10474,"attacking":10475,"Trying":10476,"negative":10477,"nursing":10478,"Baby":10479,"ET":10480,"Mitt":10481,"ko":10482,"ancing":10483,"iction":10484,"trigger":10485,"urs":10486,"stood":10487,"standard":10488,"finish":10489,"dementia":10490,"OLD":10491,"Book":10492,"declared":10493,"religious":10494,"panic":10495,"ação":10496,"cul":10497,"ium":10498,"incompet":10499,"edly":10500,"whom":10501,"Health":10502,"لام":10503,"condu":10504,"Carol":10505,"dropped":10506,"Crazy":10507,"Não":10508,"bart":10509,"rant":10510,"tam":10511,"replace":10512,"wipe":10513,"unfortunately":10514,"shi":10515,"avoid":10516,"believing":10517,"😭😭😭😭":10518,"Kayleigh":10519,"Bla":10520,"Est":10521,"Pal":10522,"Sem":10523,"realDonaldTrump":10524,"planning":10525,"voterfraud":10526,"electors":10527,"KKK":10528,"PED":10529,"Remo":10530,"lu":10531,"exposing":10532,"TRUE":10533,"jected":10534,"ILLION":10535,"hanging":10536,"pedophiles":10537,"Mexico":10538,"Fact":10539,"ially":10540,"مل":10541,"emot":10542,"irit":10543,"plor":10544,"WHERE":10545,"LIE":10546,"kinda":10547,"loaded":10548,"freaking":10549,"regarding":10550,"buddy":10551,"ashamed":10552,"Lincoln":10553,"named":10554,"akers":10555,"INS":10556,"lawsuits":10557,"Mean":10558,"brains":10559,"fag":10560,"hr":10561,"pens":10562,"Deb":10563,"arrests":10564,"pointing":10565,"copy":10566,"STEAL":10567,"sacrif":10568,"TED":10569,"خل":10570,"utter":10571,"pool":10572,"ueller":10573,"Depart":10574,"Virginia":10575,"FF":10576,"Jordan":10577,"ek":10578,"فر":10579,"ural":10580,"fell":10581,"boo":10582,"audi":10583,"rape":10584,"Belie":10585,"americagreat":10586,"RATS":10587,"soldiers":10588,"Brother":10589,"bon":10590,"useful":10591,"respond":10592,"executive":10593,"dney":10594,"nature":10595,"ency":10596,"upd":10597,"hateful":10598,"pushed":10599,"transparen":10600,"WORLD":10601,"Network":10602,"Typical":10603,".)":10604,"publ":10605,"ANG":10606,"Defund":10607,"pressure":10608,"CONST":10609,"Comey":10610,"connected":10611,"Rand":10612,"ij":10613,"vation":10614,"heaven":10615,"IND":10616,"civi":10617,"threatening":10618,"victims":10619,"shocked":10620,"frustr":10621,"MAS":10622,"Wo":10623,"file":10624,"kin":10625,"بود":10626,"unes":10627,"trial":10628,"ager":10629,"servers":10630,"supreme":10631,"Lee":10632,"parlerusa":10633,"receive":10634,"nearly":10635,"Smart":10636,"December":10637,"63":10638,"gri":10639,"دو":10640,"areas":10641,"ISM":10642,"green":10643,"Crime":10644,"HU":10645,"Kind":10646,"Levin":10647,"dirt":10648,"💪🏻":10649,"independent":10650,"bear":10651,"blower":10652,"tele":10653,"Bidens":10654,"click":10655,"IGN":10656,"?!?!":10657,"easier":10658,"darkness":10659,"Zuckerberg":10660,"82":10661,"code":10662,"mans":10663,"فق":10664,"ert":10665,"button":10666,"elites":10667,"disappointed":10668,"Unless":10669,"Lets":10670,"logic":10671,"understanding":10672,"Atl":10673,"include":10674,"Spirit":10675,"flip":10676,"Campaign":10677,"Definitely":10678,"Girl":10679,"Money":10680,"SON":10681,"print":10682,"donate":10683,"otta":10684,"PARTY":10685,"Son":10686,"dare":10687,"sar":10688,"🤣😂":10689,"associ":10690,"ruin":10691,"gra":10692,"Canad":10693,"Congrat":10694,"agencies":10695,"AST":10696,"Men":10697,"match":10698,"rating":10699,"او":10700,"گه":10701,"oples":10702,"agon":10703,"crisis":10704,"grad":10705,"فيه":10706,"Politics":10707,"DJT":10708,"Ig":10709,"None":10710,"Public":10711,"Vice":10712,"Word":10713,"divid":10714,"sand":10715,"ém":10716,"arrog":10717,"tri":10718,"assault":10719,"corn":10720,"Elect":10721,"hhhh":10722,"economic":10723,"candidates":10724,"knee":10725,"98":10726,"BT":10727,"flo":10728,"intimid":10729,"unconstitutional":10730,"excit":10731,"Anon":10732,"osen":10733,"Step":10734,"STILL":10735,"sche":10736,"athy":10737,"avin":10738,"Kelly":10739,"figured":10740,"unemploy":10741,"Nazis":10742,"certified":10743,"DR":10744,"MAKE":10745,"Ryan":10746,"oted":10747,"Them":10748,"vies":10749,"role":10750,"OTS":10751,"Join":10752,"STF":10753,"Suppor":10754,"MSNBC":10755,"RIP":10756,"hung":10757,"Burn":10758,"Clear":10759,"uhan":10760,"wild":10761,"oppos":10762,"agan":10763,"Prop":10764,"prior":10765,"revealed":10766,"increase":10767,"Mary":10768,"بق":10769,"abandon":10770,"pros":10771,"Dont":10772,"greatawakening":10773,"invest":10774,"defending":10775,"یم":10776,"recomm":10777,"Amy":10778,"scen":10779,"ashed":10780,"Class":10781,"training":10782,"Roger":10783,"mentioned":10784,"Honest":10785,"IQ":10786,"ais":10787,"blo":10788,"rough":10789,"note":10790,"REST":10791,"assist":10792,"saving":10793,"holds":10794,"value":10795,"ibution":10796,"prosecute":10797,"Illeg":10798,"OUGH":10799,"Congratulations":10800,"AW":10801,"Dbongino":10802,"IMP":10803,"UE":10804,"oqu":10805,"sink":10806,"zen":10807,"lazy":10808,"firing":10809,"terrorism":10810,"failure":10811,"tactics":10812,"34":10813,"Nev":10814,"ius":10815,"isan":10816,"station":10817,"answers":10818,"married":10819,"ibility":10820,"delus":10821,"drainthe":10822,"Racist":10823,"Corruption":10824,"coffee":10825,"demo":10826,"gro":10827,"hen":10828,"natural":10829,"ÃO":10830,"whites":10831,"Whit":10832,"bles":10833,"expected":10834,"iah":10835,"izes":10836,"prec":10837,"Lost":10838,"bitches":10839,"products":10840,"Legal":10841,"scumbags":10842,"pockets":10843,"SUPP":10844,"confirmed":10845,"Id":10846,"Lat":10847,"Sleep":10848,"Satur":10849,"Were":10850,"master":10851,"nations":10852,"بار":10853,"isso":10854,"estim":10855,"upset":10856,"corner":10857,"GOING":10858,"governments":10859,"modern":10860,"Sydney":10861,"Louis":10862,"Leader":10863,"Lindsey":10864,"latest":10865,"Rumble":10866,"arely":10867,"outrage":10868,"condem":10869,"grateful":10870,"wars":10871,"talks":10872,"taxpayers":10873,"Australia":10874,"CONSTIT":10875,"Cub":10876,"dia":10877,"😳😳":10878,"actors":10879,"ALWAYS":10880,"humans":10881,"deepstate":10882,"pressed":10883,"Rock":10884,"Question":10885,"Michelle":10886,"ilia":10887,"🤮🤮🤮🤮":10888,"RINOs":10889,"48":10890,"Sam":10891,"🐀🐀":10892,"review":10893,"chin":10894,"exerc":10895,"indict":10896,"restric":10897,"FUL":10898,"football":10899,"Apple":10900,"average":10901,"Cur":10902,"Rele":10903,"SPE":10904,"climate":10905,"lit":10906,"swe":10907,"sworn":10908,"زی":10909,"Thought":10910,"conv":10911,"aint":10912,"aches":10913,"perhaps":10914,"socialists":10915,"players":10916,"باح":10917,"direction":10918,"KEEP":10919,"positions":10920,"300":10921,"Fri":10922,"Rats":10923,"Sign":10924,"Tar":10925,"eu":10926,"mous":10927,"fucker":10928,"Prom":10929,"censoring":10930,"complicit":10931,"Destroy":10932,"insurrection":10933,"VA":10934,"rub":10935,"aks":10936,"proves":10937,"comply":10938,"inesh":10939,"fires":10940,"flix":10941,"Pedo":10942,"critical":10943,"THANK":10944,"veterans":10945,"troops":10946,"Air":10947,"Little":10948,"Name":10949,"Sci":10950,"thus":10951,"الخ":10952,"purch":10953,"Minnes":10954,"patient":10955,"patients":10956,"benefit":10957,"practice":10958,"delete":10959,"stimulus":10960,"Saturday":10961,"HC":10962,"nan":10963,"pants":10964,"vig":10965,"ند":10966,"ids":10967,"shine":10968,"supp":10969,"lief":10970,"legitimate":10971,"UTE":10972,"ABLE":10973,"WORK":10974,"spoken":10975,"MEDIA":10976,"Det":10977,"GIT":10978,"Long":10979,"closer":10980,"mate":10981,"rific":10982,"wast":10983,"👊🏻":10984,"acle":10985,"الص":10986,"ORY":10987,"STATES":10988,"GOVER":10989,"Elections":10990,"screaming":10991,"Speech":10992,"Monday":10993,"College":10994,",\"":10995,"EU":10996,"🙏❤":10997,"institution":10998,"omed":10999,"meth":11000,"ante":11001,"earn":11002,"spending":11003,"Leave":11004,"steps":11005,"determin":11006,"implement":11007,"BB":11008,"Cow":11009,"Gotta":11010,"Might":11011,"Mueller":11012,"RU":11013,"flight":11014,"mill":11015,"؟؟":11016,"ici":11017,"الت":11018,"BLACK":11019,"highly":11020,"Viol":11021,"CAR":11022,"PM":11023,"bone":11024,"cars":11025,"fb":11026,"هر":11027,"erve":11028,"apol":11029,"الك":11030,"standards":11031,"puts":11032,"turns":11033,"decent":11034,"SOCIAL":11035,"undit":11036,"organizations":11037,"neighborhood":11038,"bodies":11039,"RAC":11040,"Tri":11041,"enforce":11042,"sees":11043,"deplor":11044,"counties":11045,"الن":11046,"fathers":11047,"finding":11048,"Play":11049,"techno":11050,"Revolution":11051,"Hypocr":11052,"Nevada":11053,"Au":11054,"HS":11055,"RONG":11056,"SHA":11057,"بك":11058,"itals":11059,"strug":11060,"het":11061,"club":11062,"promises":11063,"Followed":11064,"challenge":11065,"defeat":11066,"👏🏼👏🏼":11067,"Department":11068,"Cer":11069,"Made":11070,"Wolf":11071,"ker":11072,"termin":11073,"poison":11074,"judg":11075,"radio":11076,"levels":11077,"HAHAHAHA":11078,"constantly":11079,"عشان":11080,"GITMO":11081,"%.":11082,"BAR":11083,"Years":11084,"lab":11085,"هي":11086,"101":11087,"solid":11088,"opened":11089,"driving":11090,"digital":11091,"YEARS":11092,"spineless":11093,"Brian":11094,"Instagram":11095,"strugg":11096,"Dude":11097,"لم":11098,"cep":11099,"insanity":11100,"john":11101,"Boycott":11102,"Islamic":11103,"Much":11104,"manufact":11105,"?”":11106,"Ah":11107,"Kat":11108,"Whe":11109,"gift":11110,"mort":11111,"stone":11112,"whistle":11113,"ammo":11114,"الف":11115,"awful":11116,"male":11117,"impress":11118,"didnt":11119,"يني":11120,"CEO":11121,"Believe":11122,"ATH":11123,"gree":11124,"vent":11125,"reck":11126,"islam":11127,"chief":11128,"image":11129,"AGE":11130,"mmm":11131,"Drain":11132,"Capital":11133,"Capitol":11134,"Green":11135,"Ali":11136,"GOT":11137,"HERE":11138,"Tyr":11139,"ez":11140,"greed":11141,"betray":11142,"acon":11143,"nose":11144,"REN":11145,"Stre":11146,"parts":11147,"mune":11148,"CHILD":11149,"cuz":11150,"protesting":11151,"😂😂😂😂😂":11152,"twist":11153,"transition":11154,"Barry":11155,"wakeup":11156,"ancis":11157,"broadcast":11158,"industry":11159,"Ret":11160,"retire":11161,"advert":11162,"brilliant":11163,"racial":11164,"burg":11165,"African":11166,"wisdom":11167,"CONSTITUTION":11168,"Minnesota":11169,"ACH":11170,"Lar":11171,"nam":11172,"thepeople":11173,"icts":11174,"appl":11175,"Instead":11176,"apply":11177,"throughout":11178,"limited":11179,"sites":11180,"Project":11181,"claiming":11182,"operation":11183,"picked":11184,"clowns":11185,"assume":11186,"podcast":11187,"welfare":11188,"230":11189,"68":11190,"Block":11191,"Dinesh":11192,"wicked":11193,"بخ":11194,"ags":11195,"deau":11196,"ips":11197,"JoeBiden":11198,"runk":11199,"surround":11200,"iana":11201,"WHEN":11202,"checks":11203,"thousand":11204,"Political":11205,"benefits":11206,"successful":11207,"appropriate":11208,"sake":11209,"تا":11210,"reset":11211,"INT":11212,"Coming":11213,"douche":11214,"petition":11215,"Add":11216,"accomplish":11217,"BULL":11218,"Mess":11219,"jj":11220,"iling":11221,"earlier":11222,"FUCKING":11223,"AH":11224,"Bi":11225,"Press":11226,"mun":11227,"زم":11228,"قول":11229,"😅😅":11230,"doors":11231,"fold":11232,"suppose":11233,"helps":11234,"Communists":11235,"fixed":11236,"CAUSE":11237,"🙏🏼🙏🏼":11238,"Phil":11239,"Traitors":11240,"Faith":11241,"piz":11242,"onies":11243,"arri":11244,"immune":11245,"ously":11246,"cook":11247,"Insur":11248,"clar":11249,"ilities":11250,"refused":11251,"Wouldn":11252,"Build":11253,"Walmart":11254,"primary":11255,"يك":11256,"reci":11257,"arc":11258,"entit":11259,"chr":11260,"lob":11261,"iring":11262,"movies":11263,"boss":11264,"THEN":11265,"Electoral":11266,"ناس":11267,"creating":11268,"prosecut":11269,"financial":11270,"Cal":11271,"Full":11272,"Il":11273,"MOR":11274,"Paren":11275,"Sn":11276,"sis":11277,"wards":11278,"ره":11279,"whore":11280,"disgust":11281,"design":11282,"awn":11283,"Sometimes":11284,"LIVE":11285,"experi":11286,"Color":11287,"professional":11288,"Nad":11289,"Sou":11290,"WOULD":11291,"ape":11292,"mong":11293,"powers":11294,"libs":11295,"ira":11296,"obam":11297,"REALLY":11298,"الع":11299,"Gods":11300,"shared":11301,"investigating":11302,"representatives":11303,"crooks":11304,"billions":11305,"Fal":11306,"cket":11307,"nail":11308,"🇨🇳":11309,"inet":11310,"shots":11311,"shirt":11312,"abol":11313,"tears":11314,"Stat":11315,"progressive":11316,"affect":11317,"ITED":11318,"finished":11319,"hahaha":11320,"coverage":11321,"PRAY":11322,"links":11323,"study":11324,"kkkk":11325,"tradition":11326,"FIRST":11327,"opposite":11328,"Aud":11329,"During":11330,"thor":11331,"chose":11332,"advoc":11333,"trade":11334,"2000":11335,"porn":11336,"thankful":11337,"😡😡😡":11338,"Guard":11339,"burned":11340,"mandate":11341,"particular":11342,"immigration":11343,"suffering":11344,"strategy":11345,"draintheswamp":11346,"64":11347,"DAM":11348,"Kraken":11349,"Pos":11350,"bait":11351,"🥳🥳":11352,"pelosi":11353,"users":11354,"chair":11355,"Eng":11356,"ILY":11357,"limit":11358,"hypocrite":11359,"Women":11360,"52":11361,"Facts":11362,"Lots":11363,"scr":11364,"اش":11365,"ths":11366,"heck":11367,"Head":11368,"vention":11369,"harder":11370,"homeless":11371,"blocking":11372,"believed":11373,"👍👍👍":11374,"division":11375,"govt":11376,"belongs":11377,"Masks":11378,"Citizens":11379,"MATTER":11380,"Ba":11381,"POW":11382,"dar":11383,"zo":11384,"🐑🐑":11385,"esse":11386,"concl":11387,"cancell":11388,"stores":11389,"brown":11390,"fightback":11391,"Second":11392,"cream":11393,"ussies":11394,"PROT":11395,"falling":11396,"faced":11397,"MAO":11398,"👍🏻👍🏻":11399,"photos":11400,"Africa":11401,"31":11402,"bom":11403,"dim":11404,"صح":11405,"🤪🤪":11406,"Whatever":11407,"anks":11408,"Soon":11409,"scale":11410,"Obviously":11411,"accused":11412,"senator":11413,"causes":11414,"ABC":11415,"healthcare":11416,"articles":11417,"Morning":11418,"Gab":11419,"است":11420,"سه":11421,"طل":11422,"ATT":11423,"ATED":11424,"spy":11425,"loses":11426,"Perfect":11427,"DEMON":11428,"CALL":11429,"dance":11430,"forth":11431,"chris":11432,"deport":11433,"THINK":11434,"overthrow":11435,"Unbelievable":11436,"headed":11437,"DOES":11438,"relation":11439,"recovery":11440,"Control":11441,"GOVERN":11442,"ABS":11443,"Ban":11444,"FAM":11445,"las":11446,"صباح":11447,"ھھ":11448,"thegreatawakening":11449,"reject":11450,"toss":11451,"liked":11452,"aux":11453,"obje":11454,"USS":11455,"rent":11456,"lawless":11457,"fuckers":11458,"Comple":11459,"Francis":11460,"corrupted":11461,"mandatory":11462,"Politicians":11463,"emergency":11464,"alternative":11465,"constitu":11466,"Care":11467,"Want":11468,"aire":11469,"bright":11470,"بن":11471,"instein":11472,"irrelevant":11473,"ASAP":11474,"Maria":11475,"Marxists":11476,"Barack":11477,"Earth":11478,"sacrifice":11479,"ROR":11480,"vy":11481,"lling":11482,"style":11483,"idav":11484,"weight":11485,"DEF":11486,"brothers":11487,"lucky":11488,"شوف":11489,"Cance":11490,"bird":11491,"”?":11492,"idade":11493,"forgotten":11494,"agement":11495,"agents":11496,"Andrew":11497,"Stone":11498,"TOO":11499,"publicly":11500,"SHO":11501,"Governors":11502,"ignored":11503,"delusional":11504,"COUR":11505,"Peter":11506,"Zero":11507,"das":11508,"duck":11509,"تح":11510,"هنا":11511,"🙏🏽":11512,"excellent":11513,"coinc":11514,"americaf":11515,"Pedoph":11516,"Mat":11517,"Sept":11518,"uu":11519,"بو":11520,"يار":11521,"ania":11522,"teacher":11523,"grat":11524,"contribut":11525,"LIBER":11526,"organized":11527,"concern":11528,"succeed":11529,"EVERYONE":11530,"divide":11531,"infected":11532,"Candace":11533,"hidden":11534,"Protect":11535,"62":11536,"Kore":11537,"Mill":11538,"Na":11539,"Op":11540,"figh":11541,"gor":11542,"tober":11543,"union":11544,"essa":11545,"tear":11546,"izer":11547,"newsmax":11548,"communities":11549,"ISTS":11550,"LivesMatter":11551,"49":11552,"Cult":11553,"DI":11554,"NI":11555,"SM":11556,"borders":11557,"dum":11558,"math":11559,"rot":11560,"zed":11561,"حاج":11562,"thro":11563,"intr":11564,"dep":11565,"convict":11566,"itical":11567,"mayors":11568,"penalty":11569,"breaks":11570,"Official":11571,"pulling":11572,"repeat":11573,"viral":11574,"psych":11575,"HCQ":11576,"Karen":11577,"PRE":11578,"Rat":11579,"daddy":11580,"rand":11581,"otus":11582,"agreed":11583,"Ins":11584,"Already":11585,"hearings":11586,"OOK":11587,"insurance":11588,"survival":11589,"McCain":11590,"Boris":11591,"desperate":11592,"LORD":11593,"americafirst":11594,"Dig":11595,"LAND":11596,"Tro":11597,"tren":11598,"hetor":11599,"seg":11600,"unto":11601,"deals":11602,"quote":11603,"Gold":11604,"partisan":11605,"WHITE":11606,"uclear":11607,"deadly":11608,"Anything":11609,"camps":11610,"credibility":11611,"According":11612,"knees":11613,"Hmmm":11614,"ijing":11615,"Cam":11616,"gal":11617,"jam":11618,"نمی":11619,"ین":11620,"acist":11621,"outlets":11622,"degree":11623,"scare":11624,"checking":11625,"uesday":11626,"😂🤣😂":11627,"ايه":11628,"trolls":11629,"vul":11630,"سر":11631,"tir":11632,"peoples":11633,"istan":11634,"confl":11635,"ros":11636,"ishing":11637,"ITIC":11638,"handed":11639,"tests":11640,"Barrett":11641,"neighb":11642,"71":11643,"Top":11644,"idge":11645,"loom":11646,"comb":11647,"excl":11648,"Change":11649,"services":11650,"WELL":11651,"echoed":11652,"executed":11653,"Wrong":11654,"!🇺🇸":11655,"FK":11656,"LMAO":11657,"Nah":11658,"NATION":11659,"ios":11660,"pat":11661,"بل":11662,"todos":11663,"sea":11664,"ruling":11665,"ruined":11666,"unbelievable":11667,"pective":11668,"cheap":11669,"Union":11670,"races":11671,"collusion":11672,"soros":11673,"claimed":11674,"ysis":11675,"OUND":11676,"statements":11677,"advant":11678,"motiv":11679,"droxy":11680,"\"?":11681,"59":11682,"Fasc":11683,"Wuhan":11684,"ilet":11685,"stuck":11686,"poch":11687,"ucky":11688,"ORG":11689,"attend":11690,"famous":11691,"Hahahahaha":11692,"profit":11693,"psycho":11694,"session":11695,"sou":11696,"غير":11697,"arily":11698,"vet":11699,"web":11700,"unite":11701,"ISH":11702,"ission":11703,"martial":11704,"👏👏👏":11705,"request":11706,"polling":11707,"CORRUPT":11708,"Pop":11709,"Pandemic":11710,"moun":11711,"ensure":11712,"imum":11713,"Ann":11714,"Stor":11715,"insult":11716,"badge":11717,"pretend":11718,"sky":11719,"snake":11720,"glitch":11721,"Awakening":11722,"brief":11723,"Human":11724,"snowflake":11725,"separate":11726,"Executive":11727,"October":11728,"IP":11729,"Job":11730,"LP":11731,"Vo":11732,"ware":11733,"acity":11734,"opposition":11735,"terr":11736,"STUP":11737,"Island":11738,"Except":11739,"DEST":11740,"addition":11741,"Feel":11742,"souls":11743,"journalist":11744,"medicine":11745,"Carolina":11746,"Dar":11747,"HATE":11748,"Park":11749,"QAnon":11750,"VIR":11751,"hating":11752,"mater":11753,"حلو":11754,"attr":11755,"isc":11756,"opath":11757,"Threat":11758,"trib":11759,"acknow":11760,"redu":11761,"ART":11762,"Deus":11763,"lifetime":11764,"racists":11765,"loroqu":11766,"Devin":11767,"Emp":11768,"ILE":11769,"Sub":11770,"infr":11771,"section":11772,"forts":11773,"apan":11774,"iew":11775,"server":11776,"brand":11777,"license":11778,"witnesses":11779,"Attack":11780,"Dri":11781,"TX":11782,"holes":11783,"rated":11784,"erely":11785,"osing":11786,"mercy":11787,"VOTER":11788,"documents":11789,"PT":11790,"script":11791,"relief":11792,"abal":11793,"foc":11794,"الج":11795,"minor":11796,"surrender":11797,"BEST":11798,"foundation":11799,"spoke":11800,"testim":11801,"despite":11802,"STUPID":11803,"54":11804,"?\"":11805,"ramp":11806,"vest":11807,"خو":11808,"مج":11809,"error":11810,"esh":11811,"lyn":11812,"odd":11813,"exception":11814,"designed":11815,"realized":11816,"Move":11817,"distur":11818,"demanding":11819,"Murder":11820,"32":11821,"MU":11822,"MILLION":11823,"iams":11824,"lord":11825,"labor":11826,"sab":11827,"sens":11828,"یی":11829,"infl":11830,"igg":11831,"resto":11832,"20th":11833,"yourselves":11834,"quar":11835,"Presidente":11836,"clint":11837,"annon":11838,"Clintons":11839,"Okay":11840,"install":11841,"mandates":11842,"potential":11843,"details":11844,"announced":11845,"lolololo":11846,"CRIMIN":11847,"overwhelming":11848,"OBAMA":11849,"Eli":11850,"Link":11851,"Qanon":11852,"RY":11853,"VED":11854,"xo":11855,"ummer":11856,"therefore":11857,"anged":11858,"Breaking":11859,"Charlie":11860,"Brennan":11861,"apolis":11862,"BI":11863,"Cro":11864,"CIT":11865,"Censor":11866,"Er":11867,"Greg":11868,"Navy":11869,"PD":11870,"Praise":11871,"RNC":11872,"bott":11873,"kins":11874,"xx":11875,"مم":11876,"👆🏻":11877,"alous":11878,"owe":11879,"tied":11880,"wethepeople":11881,"lesson":11882,"LESS":11883,"Deal":11884,"farm":11885,"center":11886,"status":11887,"inois":11888,"dealing":11889,"picable":11890,"soft":11891,"bankrupt":11892,"Ca":11893,"GIVE":11894,"HH":11895,"bly":11896,"iance":11897,"yo":11898,"secon":11899,"summer":11900,"earch":11901,"Common":11902,"older":11903,"nedy":11904,"ONEY":11905,"FULL":11906,"Following":11907,"immunity":11908,"potus":11909,"AGAINST":11910,"pocket":11911,"title":11912,"56":11913,"BITCH":11914,"Four":11915,"Ra":11916,"Rul":11917,"Ve":11918,"cot":11919,"ções":11920,"وح":11921,"encourage":11922,"antis":11923,"orted":11924,"function":11925,"legit":11926,"OOOO":11927,"explains":11928,"leaves":11929,"tweets":11930,"department":11931,"restrictions":11932,"Nadler":11933,"Jail":11934,"Lon":11935,"Tuesday":11936,"Things":11937,"trail":11938,"apers":11939,"emos":11940,"boot":11941,"backing":11942,"typical":11943,"fucks":11944,"avan":11945,"officially":11946,"hurts":11947,"punished":11948,"Bullshit":11949,"Pat":11950,"Ut":11951,"mix":11952,"برا":11953,"itz":11954,"sher":11955,"choices":11956,"impro":11957,"smile":11958,"humor":11959,"denied":11960,"causing":11961,"debates":11962,"scient":11963,"certify":11964,"LEGAL":11965,"POWER":11966,"Mer":11967,"Mod":11968,"SOR":11969,"jr":11970,"mbol":11971,"income":11972,"theft":11973,"hea":11974,"beating":11975,"Reagan":11976,"minority":11977,"BECAUSE":11978,"openly":11979,"Getting":11980,"promote":11981,"maintain":11982,"TERROR":11983,"bills":11984,"Period":11985,"accepted":11986,"URN":11987,"includes":11988,"engine":11989,"globalists":11990,"Presidency":11991,"UMB":11992,"sleepy":11993,"Legisl":11994,"🌈🌈🌈🌈":11995,"Majority":11996,"guarantee":11997,"blatant":11998,"2Q":11999,"Fear":12000,"Middle":12001,"Pathetic":12002,"bars":12003,"mc":12004,"rope":12005,"سی":12006,"isode":12007,"itbart":12008,"oduc":12009,"Force":12010,"entially":12011,"Arab":12012,"hearts":12013,"embarrassment":12014,"corporate":12015,"Vaccine":12016,"JE":12017,"grew":12018,"يه":12019,"atically":12020,"orange":12021,"comed":12022,"ENE":12023,"mug":12024,"Beijing":12025,"blackmail":12026,"William":12027,"LOOK":12028,"stronger":12029,"Flag":12030,"specific":12031,"Sanders":12032,"Remove":12033,"79":12034,"Aug":12035,"matic":12036,"yer":12037,"💪💪":12038,"lib":12039,"pel":12040,"labe":12041,"asters":12042,"الش":12043,"hoo":12044,"ached":12045,"ships":12046,"savethe":12047,"masses":12048,"intellect":12049,"attempted":12050,"viron":12051,"HUGE":12052,"advantage":12053,"Cut":12054,"CAL":12055,"Dad":12056,"FY":12057,"JV":12058,"bie":12059,"dre":12060,"oil":12061,"spl":12062,"toilet":12063,"stink":12064,"lift":12065,"neapolis":12066,"earned":12067,"France":12068,"slap":12069,"passing":12070,"affidav":12071,"Speaker":12072,"circum":12073,"TWIT":12074,"referring":12075,"Democ":12076,"Gavin":12077,"Mil":12078,"Sex":12079,"Wtf":12080,"migr":12081,"rab":12082,"تن":12083,"دن":12084,"👇🏻":12085,"Than":12086,"ounce":12087,"bold":12088,"offs":12089,"coin":12090,"bra":12091,"DEEP":12092,"chain":12093,"signific":12094,"Disney":12095,",,,":12096,"quality":12097,"records":12098,"Putin":12099,"Smith":12100,"Impeachment":12101,"Complete":12102,"46":12103,"Coup":12104,"Fund":12105,"OH":12106,"já":12107,"pter":12108,"smar":12109,"——":12110,"replaced":12111,"encing":12112,"ications":12113,"update":12114,"antic":12115,"Foreign":12116,"BEEN":12117,"ANYTHING":12118,"hungry":12119,"HOUSE":12120,"discussion":12121,"satanic":12122,"veteran":12123,"dinner":12124,"entitled":12125,"150":12126,"DNA":12127,"Som":12128,"drunk":12129,"flood":12130,"nas":12131,"tag":12132,"ári":12133,"گی":12134,"🖕🏼":12135,"hall":12136,"absent":12137,"conference":12138,"curious":12139,"BEFORE":12140,"shoe":12141,"plane":12142,"Organ":12143,"investigations":12144,"hhh":12145,"DONT":12146,"JUSTICE":12147,"Illinois":12148,"recognize":12149,"POLITIC":12150,"jerk":12151,"Landslide":12152,"Dorsey":12153,"permanently":12154,"incompetent":12155,"technology":12156,"Birth":12157,"Ene":12158,"MBER":12159,"Rest":12160,"tort":12161,"تق":12162,"advis":12163,"pper":12164,"poses":12165,"Prof":12166,"UNITED":12167,"SHOW":12168,"2017":12169,"Work":12170,"🤣🤣🤣🤣🤣":12171,"miser":12172,"severe":12173,"foxnews":12174,"Kennedy":12175,"🖕🏻🖕🏻":12176,"Cent":12177,"June":12178,"bass":12179,"جا":12180,"levin":12181,"irts":12182,"unte":12183,"resol":12184,"identity":12185,"grant":12186,"accus":12187,"statues":12188,"pupp":12189,"teeth":12190,"Sar":12191,"Set":12192,"jok":12193,"كت":12194,"inged":12195,"plot":12196,"backed":12197,"ALD":12198,"goodness":12199,"commer":12200,"fuckin":12201,"Comp":12202,"Former":12203,"ordered":12204,"MAGA2020":12205,"otten":12206,"joining":12207,"confidence":12208,"suspic":12209,"ANYONE":12210,"dependence":12211,"model":12212,"Couldn":12213,"Victory":12214,"Canadian":12215,"85":12216,"Dave":12217,"Japan":12218,"PAY":12219,"Snow":12220,"SEN":12221,"mare":12222,"خود":12223,"دق":12224,"ini":12225,"itas":12226,"otes":12227,"ched":12228,"foi":12229,"desc":12230,"انه":12231,"reasonable":12232,"contain":12233,"strange":12234,"sickening":12235,"eeee":12236,"colors":12237,"godbless":12238,"fresh":12239,"rocks":12240,"smoke":12241,"Criminal":12242,"chicken":12243,"ratings":12244,"Jill":12245,"Main":12246,"NAS":12247,"cards":12248,"iar":12249,"🤦🏼":12250,"reli":12251,"alter":12252,"verify":12253,"ThePeople":12254,"Throw":12255,"muito":12256,"annical":12257,"considering":12258,"rolling":12259,"Insurrection":12260,"911":12261,"Lies":12262,"Squ":12263,"cti":12264,"rhetor":12265,"vesting":12266,"shell":12267,"guide":12268,"politically":12269,"bullet":12270,"sadly":12271,"Prose":12272,"CONTR":12273,"trump2020landslide":12274,"collect":12275,"engha":12276,"Special":12277,"iliar":12278,"Wayne":12279,"femin":12280,"Netflix":12281,"Creep":12282,"divided":12283,"Supporters":12284,"!)":12285,"400":12286,"Claim":12287,"KJV":12288,"MANY":12289,"TING":12290,"Um":12291,"fans":12292,"gop":12293,"esty":12294,"boat":12295,"corona":12296,"worker":12297,"ureau":12298,"BET":12299,"fili":12300,"LIFE":12301,"Count":12302,"🙏🏻🇺🇸":12303,"subst":12304,"driver":12305,"appointment":12306,"TELL":12307,"BOY":12308,"camera":12309,"physically":12310,"libtard":12311,"READY":12312,"nazi":12313,"constituents":12314,"Dark":12315,"Hop":12316,"JES":12317,"Rick":12318,"SY":12319,"VO":12320,"vai":12321,"وع":12322,"essential":12323,"Inte":12324,"stopping":12325,"apping":12326,"compli":12327,"illegally":12328,"loyal":12329,"experts":12330,"flags":12331,"hypocrites":12332,"Minneapolis":12333,"Breitbart":12334,"committee":12335,"slowly":12336,"drinking":12337,"birthday":12338,"Evidence":12339,"cabal":12340,"reporter":12341,"unemployment":12342,"convince":12343,"SHARE":12344,"👆🏻👆🏻":12345,"Lim":12346,"mut":12347,"thee":12348,"enders":12349,"elit":12350,"rens":12351,"IDI":12352,"scandal":12353,"greater":12354,"Group":12355,"ski":12356,"credible":12357,"shadow":12358,"MONEY":12359,"Pope":12360,"só":12361,"retired":12362,"hable":12363,"combat":12364,"consu":12365,"explan":12366,"presidente":12367,"activity":12368,"legislature":12369,"reveal":12370,"Meanwhile":12371,"neighbors":12372,"London":12373,"91":12374,"Bas":12375,"Mach":12376,"Night":12377,"mr":12378,"pics":12379,"swear":12380,"yard":12381,"رر":12382,"كان":12383,"يت":12384,"🤷🏼":12385,"anno":12386,"toms":12387,"cher":12388,"REE":12389,"grown":12390,"suppress":12391,"uding":12392,"asks":12393,"ICT":12394,"انتي":12395,"jection":12396,"Marxism":12397,"Reset":12398,"tarian":12399,"Hero":12400,"expert":12401,"turd":12402,"perfectly":12403,"argue":12404,"NEEDS":12405,"OANN":12406,"effects":12407,"HAPPEN":12408,"Representatives":12409,"prosper":12410,"Sleepy":12411,"Billion":12412,"Di":12413,"KILL":12414,"Switch":12415,"Wed":12416,"jan":12417,"يس":12418,"alot":12419,"chloroqu":12420,"abiding":12421,"soy":12422,"illness":12423,"Loomer":12424,"efforts":12425,"LIVES":12426,"لها":12427,"VOTING":12428,"punishment":12429,"عليك":12430,"sugg":12431,"💩💩💩💩":12432,"Melania":12433,"admitted":12434,"suddenly":12435,"83":12436,"Doug":12437,"Hall":12438,"Ms":12439,"PH":12440,"اون":12441,"thin":12442,"onna":12443,"esquer":12444,"elf":12445,"grave":12446,"Notice":12447,"talked":12448,"COVID19":12449,"giant":12450,"journalists":12451,"Street":12452,"Away":12453,"CU":12454,"Crow":12455,"jes":12456,"فع":12457,"cells":12458,"auto":12459,"roit":12460,"ensla":12461,"previous":12462,"ICH":12463,"leads":12464,"Trudeau":12465,"calm":12466,"capable":12467,"Administration":12468,"QUE":12469,"began":12470,"corporations":12471,"reporters":12472,"01":12473,"BTW":12474,"Cast":12475,"DONE":12476,"LONG":12477,"MER":12478,"Pass":12479,"dade":12480,"ncia":12481,"erg":12482,"theblue":12483,"reform":12484,"segu":12485,"ldiers":12486,"adult":12487,"crat":12488,"esta":12489,"assass":12490,"symbol":12491,"statist":12492,"Watching":12493,"citizenship":12494,"Ballot":12495,"houses":12496,"TWITTER":12497,"//":12498,"CBS":12499,"Uh":12500,"يم":12501,"🤍💙":12502,"alley":12503,"etz":12504,"ils":12505,".........":12506,"evening":12507,"intended":12508,"ashion":12509,"Warri":12510,"filthy":12511,"delay":12512,"Needs":12513,"hospitals":12514,"Globalist":12515,"🐌🐌🐌🐌":12516,"retarded":12517,"arrogant":12518,"savethechildren":12519,"enghazi":12520,"JESUS":12521,"BOD":12522,"Cry":12523,"Lying":12524,"hated":12525,"weed":12526,"univers":12527,"ources":12528,"WeThePeople":12529,"uckle":12530,"download":12531,"types":12532,"achie":12533,"Somebody":12534,"RESS":12535,"filed":12536,"Leftists":12537,"DONALD":12538,"committing":12539,"Otherwise":12540,"principles":12541,"September":12542,"smarter":12543,"Hun":12544,"MUR":12545,"hire":12546,"hired":12547,"يح":12548,"thiev":12549,"assets":12550,"alt":12551,"fected":12552,"Heaven":12553,"sayin":12554,"raising":12555,"award":12556,"familiar":12557,"Alleg":12558,"bub":12559,"sooner":12560,"walked":12561,"distancing":12562,"🖕🖕🖕🖕":12563,"allegations":12564,"conduct":12565,"BULLSHIT":12566,"'.":12567,"Del":12568,"Oper":12569,"SWA":12570,"nu":12571,"pour":12572,"forgive":12573,"meas":12574,"residents":12575,"cles":12576,"shove":12577,"Guy":12578,"Voters":12579,"animal":12580,"strike":12581,"updates":12582,"excited":12583,"seconds":12584,"89":12585,"French":12586,"Kar":12587,"Mi":12588,"NJ":12589,"athing":12590,"سن":12591,"thood":12592,"seu":12593,"meat":12594,"🇺🇸♥":12595,"teen":12596,"grams":12597,"branch":12598,"angel":12599,"listed":12600,"basic":12601,"Dani":12602,"creatures":12603,"trained":12604,"Resist":12605,"Collins":12606,"vinced":12607,"Millions":12608,"warriors":12609,"cancelled":12610,">>":12611,"Os":12612,"fab":12613,"gres":12614,"makers":12615,"size":12616,"taste":12617,"اول":12618,"خلا":12619,"مح":12620,"💪🏼":12621,"reven":12622,"environ":12623,"ality":12624,"chosen":12625,"compar":12626,"mente":12627,"grade":12628,"flow":12629,"blacklivesmatter":12630,"collap":12631,"EVERYTHING":12632,"churches":12633,"💥💥💥💥":12634,"libtards":12635,"Abrams":12636,"Twatter":12637,"Veterans":12638,"transparency":12639,"recommend":12640,"BRA":12641,"DES":12642,"Hur":12643,"Jose":12644,"Mis":12645,"Pur":12646,"eign":12647,"kraken":12648,"obey":12649,"pit":12650,"swi":12651,"uge":12652,"بط":12653,"youtube":12654,"apper":12655,"REME":12656,"background":12657,"audience":12658,"proved":12659,"phones":12660,"OLSON":12661,"included":12662,"هههههههههههههههههههههههههههههههههههههههههههههههه":12663,"ROY":12664,"TeamTrump":12665,"continued":12666,"agreement":12667,"94":12668,"CY":12669,"Eu":12670,"dan":12671,"lately":12672,"rates":12673,"کی":12674,"aylor":12675,"trip":12676,"moon":12677,"conce":12678,"pays":12679,"genius":12680,"interests":12681,"supposedly":12682,"legislators":12683,"connect":12684,"Shoot":12685,"Woman":12686,"chloroquine":12687,"SWAMP":12688,"OLSONAR":12689,"Bru":12690,"Econom":12691,"Pod":12692,"Sla":12693,"ji":12694,"يد":12695,"beast":12696,"aces":12697,"rude":12698,"trick":12699,"ifying":12700,"este":12701,"clu":12702,"spit":12703,"plays":12704,"ladies":12705,"violation":12706,"signatures":12707,"HELP":12708,"deserved":12709,"Room":12710,"EXACT":12711,"washed":12712,"Flu":12713,"approved":12714,"provided":12715,"Richard":12716,"Jenna":12717,"Whitmer":12718,"clinton":12719,"Cause":12720,"Mac":12721,"Mind":12722,"Val":12723,"sam":12724,"tex":12725,"صل":12726,"👎👎":12727,"rect":12728,"pelo":12729,"ONS":12730,"marks":12731,"although":12732,"listened":12733,"LOCK":12734,"impeached":12735,"Ready":12736,"KAG2020":12737,"🇱🇷🇱🇷":12738,"Sheriff":12739,"arciss":12740,"obamagate":12741,"57":12742,"Fair":12743,"Patr":12744,"Santa":12745,"bum":12746,"cake":12747,"pussies":12748,"vous":12749,"جد":12750,"toward":12751,"beer":12752,"vehic":12753,"hammer":12754,"eman":12755,"sued":12756,"brings":12757,"udes":12758,"orses":12759,"stops":12760,"ffs":12761,"phony":12762,"UND":12763,"solve":12764,"Haven":12765,"staying":12766,"engage":12767,"properly":12768,"student":12769,"mirror":12770,"smoking":12771,"apologize":12772,"absentee":12773,"53":12774,"86":12775,"Lem":12776,"Mos":12777,"Non":12778,"Prison":12779,"TDS":12780,"Wins":12781,"fauci":12782,"south":12783,"ضح":12784,"وز":12785,"reaction":12786,"asp":12787,"icing":12788,"ider":12789,"keys":12790,"autom":12791,"convinced":12792,"blical":12793,"backtheblue":12794,"coord":12795,"surely":12796,"University":12797,"arent":12798,"demons":12799,"genoc":12800,"OPE":12801,"muslim":12802,"celebrate":12803,"Detroit":12804,"Colorado":12805,"Action":12806,"Mand":12807,"Pure":12808,"عد":12809,"thony":12810,"threw":12811,"tip":12812,"adults":12813,"oks":12814,"quem":12815,"sav":12816,"seeking":12817,"ISS":12818,"LES":12819,"reply":12820,"Brain":12821,"MOST":12822,"onymous":12823,"Britain":12824,"eliminate":12825,"Honestly":12826,"Release":12827,"67":12828,"Psal":12829,"Sol":12830,"auty":12831,"nuclear":12832,"فا":12833,"inating":12834,"sele":12835,"moves":12836,"cra":12837,"crash":12838,"vileg":12839,"Contin":12840,"founded":12841,"VOTES":12842,"glory":12843,"aires":12844,"🇺🇸🇺🇸🇺🇸🇺🇸🇺🇸🇺🇸🇺🇸🇺🇸🇺🇸🇺🇸🇺🇸🇺🇸🇺🇸🇺🇸🇺🇸🇺🇸":12845,"product":12846,"linwood":12847,"graphy":12848,"ABSOL":12849,"testimony":12850,"CRA":12851,"Democracy":12852,"Jay":12853,"Pa":12854,"pin":12855,"أن":12856,"icon":12857,"amente":12858,"options":12859,"unlike":12860,"ifer":12861,"herd":12862,"discrimin":12863,"lights":12864,"threaten":12865,"dealt":12866,"confident":12867,"cheaters":12868,"remains":12869,"BOOM":12870,"Educ":12871,"prepare":12872,"tiny":12873,"indoctrination":12874,"consist":12875,"43":12876,"FACT":12877,"Karma":12878,"Mob":12879,"NT":12880,"Sue":12881,"SICK":12882,"lmao":12883,"mies":12884,"ena":12885,"shing":12886,"shred":12887,"produc":12888,"donations":12889,"cord":12890,"stomach":12891,"century":12892,"LIES":12893,"Corona":12894,"Drop":12895,"buildings":12896,"prosecution":12897,"Service":12898,"demonic":12899,"demonstr":12900,"capitalism":12901,"Foundation":12902,"نفس":12903,"conditions":12904,"rational":12905,"virtue":12906,"Director":12907,"comfortable":12908,"inauguration":12909,"FAMILY":12910,"Por":12911,"Waters":12912,"dip":12913,"pread":12914,"nowhere":12915,"overturn":12916,"ANCE":12917,"manner":12918,"describ":12919,"shits":12920,"bump":12921,"legislation":12922,"nesday":12923,"praise":12924,"warrior":12925,"incredible":12926,"grocer":12927,"Ilhan":12928,"Benghazi":12929,"Dump":12930,"Distr":12931,"Hus":12932,"MAY":12933,"ume":12934,"zone":12935,"تت":12936,"tox":12937,"pride":12938,"Cho":12939,"intent":12940,"presidenttrump":12941,"warned":12942,"stitute":12943,"2015":12944,"REPORT":12945,"presented":12946,"accomplished":12947,"fantastic":12948,"Idiot":12949,"vulner":12950,"Creat":12951,"DU":12952,"Hand":12953,"eh":12954,"fbi":12955,"lame":12956,"sins":12957,"heat":12958,"alwell":12959,"bled":12960,"ISIS":12961,"ARREST":12962,"DEAD":12963,"regime":12964,"void":12965,"unders":12966,"begins":12967,"testif":12968,"graph":12969,"besides":12970,"lefty":12971,"وقت":12972,"identify":12973,"Terrorist":12974,"ccp":12975,"civiliz":12976,"Illegal":12977,"Cuba":12978,"DESTROY":12979,":(":12980,"MM":12981,"dc":12982,"چی":12983,"err":12984,"amen":12985,"opo":12986,"indic":12987,"georgia":12988,"sniff":12989,"largest":12990,"surprising":12991,"Hahahaha":12992,"TRAITOR":12993,"attempting":12994,"analysis":12995,"England":12996,"convicted":12997,"Dele":12998,"FACE":12999,"SL":13000,"flying":13001,"lon":13002,"wed":13003,"شخ":13004,"thread":13005,"lian":13006,"deem":13007,"object":13008,"preach":13009,"follows":13010,"impact":13011,"nightmare":13012,"messages":13013,"fallen":13014,"👍👍👍👍":13015,"qualified":13016,"cuses":13017,"produce":13018,"costs":13019,"controlling":13020,"clip":13021,"snowflakes":13022,"cription":13023,"floor":13024,"Storm":13025,"58":13026,"Mother":13027,"MIL":13028,"bath":13029,"fashion":13030,"ives":13031,"mi":13032,"silly":13033,"reno":13034,"veto":13035,"shith":13036,"pled":13037,"ACC":13038,"compass":13039,"pretending":13040,"tyrannical":13041,"pedophilia":13042,"haters":13043,"paint":13044,"BODY":13045,"ABSOLUTE":13046,"Bal":13047,"pile":13048,"pair":13049,"tune":13050,"سم":13051,"stake":13052,"stating":13053,"arations":13054,"bem":13055,"shout":13056,"povo":13057,"actor":13058,"discovered":13059,"wore":13060,"Almost":13061,"alien":13062,"accountability":13063,"teamtrump":13064,"VoteRed":13065,",,,,":13066,"execution":13067,"COUNT":13068,"carrying":13069,"taxpayer":13070,"Atlanta":13071,"scheme":13072,"wakeupamerica":13073,"Wednesday":13074,"خلاص":13075,"Case":13076,"Journal":13077,"PERS":13078,"WERE":13079,"ZER":13080,"mant":13081,"wet":13082,"ذي":13083,"شن":13084,"thal":13085,"vey":13086,"amo":13087,"lax":13088,"offended":13089,"affili":13090,"doesnt":13091,"demands":13092,"basis":13093,"wishes":13094,"submit":13095,"Warren":13096,"sucking":13097,"educate":13098,"custo":13099,"Christianity":13100,"repeated":13101,"False":13102,"37":13103,"Cop":13104,"Mart":13105,"PUT":13106,"Yay":13107,"miles":13108,"pages":13109,"uel":13110,"کار":13111,"thumb":13112,"secre":13113,"Three":13114,"ima":13115,"ifically":13116,"council":13117,"ALK":13118,"forms":13119,"flat":13120,"1984":13121,"UNDER":13122,"judicial":13123,"feder":13124,"parent":13125,"ifications":13126,"facing":13127,"punk":13128,"square":13129,"دري":13130,"اااا":13131,"approach":13132,"Indian":13133,"resistance":13134,"يعني":13135,"method":13136,"chrome":13137,"Audit":13138,"36":13139,"81":13140,"Die":13141,"FAC":13142,"Gar":13143,"mat":13144,"sle":13145,"تم":13146,"وه":13147,"iny":13148,"inations":13149,"anthem":13150,"thew":13151,"youth":13152,"episode":13153,"preced":13154,"warm":13155,"isnt":13156,"viewers":13157,"saveour":13158,"میکن":13159,"tyrant":13160,"precious":13161,"wealthy":13162,"effler":13163,"Katie":13164,"droxychloroquine":13165,"Bes":13166,"CTION":13167,"Kent":13168,"Line":13169,"PC":13170,"Past":13171,"WTH":13172,"hits":13173,"são":13174,"خی":13175,"خلي":13176,"aside":13177,"lip":13178,"craw":13179,"exists":13180,"الق":13181,"disaster":13182,"programs":13183,"ENOUGH":13184,"guessing":13185,"sucker":13186,"Grow":13187,"Space":13188,"networks":13189,"generations":13190,"advance":13191,"targeted":13192,"Braz":13193,"physical":13194,"sedition":13195,"DAMN":13196,"يارب":13197,"Creepy":13198,"explanation":13199,"Sl":13200,"Ur":13201,"bucks":13202,"pence":13203,"خر":13204,"عم":13205,"rip":13206,"astr":13207,"cycle":13208,"morals":13209,"SEL":13210,"ibly":13211,"crimefamily":13212,"silenced":13213,"depends":13214,"privileg":13215,"pesso":13216,"CITIZ":13217,"Birthday":13218,"BOOK":13219,"CARE":13220,"Devil":13221,"LIST":13222,"cens":13223,"tt":13224,"tat":13225,"✌🏼":13226,"💖💖":13227,"tood":13228,"ructive":13229,"acking":13230,"trumps":13231,"keepamericagreat":13232,"park":13233,"sons":13234,"BEING":13235,"damned":13236,"ugs":13237,"organize":13238,"idespread":13239,"detail":13240,"Riots":13241,"juice":13242,"brutal":13243,"rhetoric":13244,"&#":13245,"BAN":13246,"Rh":13247,"awhile":13248,"cart":13249,"tun":13250,"”!":13251,"💙💙":13252,"😠😠":13253,"eres":13254,"chi":13255,"pring":13256,"holy":13257,"Click":13258,"Commit":13259,"arresting":13260,"Worth":13261,"walkaway":13262,"rooms":13263,"PART":13264,"PLAN":13265,"SaveAmerica":13266,"SUPPORT":13267,"exercise":13268,"Cancel":13269,"\"...":13270,"Dick":13271,"GEN":13272,"Isa":13273,"JFK":13274,"eed":13275,"rotten":13276,"ço":13277,"طيب":13278,"فه":13279,"iner":13280,"heal":13281,"alling":13282,"embr":13283,"uphold":13284,"abled":13285,"arden":13286,"dishonest":13287,"preh":13288,"scene":13289,"rising":13290,"compared":13291,"Artic":13292,"aaa":13293,"blowing":13294,"traffic":13295,"Jeffrey":13296,"spiritual":13297,"Susan":13298,"IO":13299,"LM":13300,"MON":13301,"Tul":13302,"Teach":13303,"cs":13304,"dry":13305,"gross":13306,"tend":13307,"western":13308,"غل":13309,"ativ":13310,"sta":13311,"oppon":13312,"unning":13313,"ups":13314,"obst":13315,"disorder":13316,"AmericaFirst":13317,"despicable":13318,"Although":13319,"shoes":13320,"aliens":13321,"Carter":13322,"washing":13323,"ikes":13324,"Swalwell":13325,"German":13326,"journalism":13327,"window":13328,"CONTROL":13329,"EXACTLY":13330,"Apr":13331,"Asi":13332,"Lie":13333,"Pan":13334,"Veg":13335,"ZI":13336,"bound":13337,"jury":13338,"گر":13339,"👇🏼":13340,"😢😢":13341,"inary":13342,"ende":13343,"arse":13344,"trap":13345,"acked":13346,"worries":13347,"assaul":13348,"ATING":13349,"progress":13350,"pleasure":13351,"prepar":13352,"monster":13353,"versity":13354,"AKEN":13355,"🤬🤬🤬":13356,"Calls":13357,"Defense":13358,"restaurant":13359,"marxist":13360,"levinshow":13361,"vulnerable":13362,"Fi":13363,"HN":13364,"LG":13365,"Ly":13366,"barely":13367,"nc":13368,"zagate":13369,"خوا":13370,"شك":13371,"rust":13372,"absur":13373,"anka":13374,"eles":13375,"founding":13376,"incident":13377,"volunte":13378,"manipulate":13379,"Owens":13380,"perspective":13381,"Protest":13382,"Hammer":13383,"GOVERNMENT":13384,"material":13385,"miserable":13386,"gressi":13387,"Kevin":13388,"Wave":13389,"uine":13390,"waking":13391,"بين":13392,"تس":13393,"tha":13394,"aced":13395,"tight":13396,"unts":13397,"prime":13398,"blaming":13399,"Ital":13400,"sua":13401,"donated":13402,"shel":13403,"Incl":13404,"Indeed":13405,"DEATH":13406,"jealous":13407,"tons":13408,"Orange":13409,"signature":13410,"McEn":13411,"expecting":13412,"agency":13413,"entertainment":13414,"restaurants":13415,"MURDER":13416,"5th":13417,"Card":13418,"Smo":13419,"clock":13420,"som":13421,"توي":13422,"وض":13423,"🗽🗽":13424,"🙌🏼":13425,"inspir":13426,"ache":13427,"uneducated":13428,"noon":13429,"ههه":13430,"offensive":13431,"disappear":13432,"perse":13433,"desire":13434,"awake":13435,"adding":13436,"speaker":13437,"requires":13438,"madness":13439,"umerous":13440,"Buy":13441,"tribun":13442,"Dob":13443,"Imm":13444,"Kong":13445,"Mal":13446,"WS":13447,"Wil":13448,"WRONG":13449,"Youn":13450,"aim":13451,"east":13452,"hunt":13453,"masters":13454,"tucker":13455,"جه":13456,"شر":13457,"unable":13458,"resents":13459,"Heart":13460,"Andy":13461,"Josh":13462,"Art":13463,"checkers":13464,"deeper":13465,"shutdown":13466,"refuge":13467,"Scum":13468,"Parlor":13469,"FakeNews":13470,"activities":13471,"actively":13472,"====":13473,"ructure":13474,"August":13475,"thieves":13476,"39":13477,"42":13478,"Boo":13479,"BAD":13480,"JA":13481,"bun":13482,"mol":13483,"tall":13484,"unions":13485,"offense":13486,"command":13487,"warfare":13488,"mmmm":13489,"Jean":13490,"harris":13491,"creature":13492,"Respon":13493,"COMING":13494,"🙏🏻🙏🏻🙏🏻":13495,"عند":13496,"delivered":13497,"System":13498,"ursday":13499,"Clearly":13500,"CHILDREN":13501,"McEnany":13502,"Tenn":13503,"Western":13504,"bout":13505,"breed":13506,"closing":13507,"ترا":13508,"جع":13509,"قه":13510,"وانا":13511,"ENTI":13512,"cared":13513,"memory":13514,"killer":13515,"Gee":13516,"HAD":13517,"SEC":13518,"123":13519,"correctly":13520,"regularities":13521,"ultimate":13522,"indictments":13523,"circumst":13524,"Bel":13525,"Epoch":13526,"SAT":13527,"abe":13528,"sne":13529,"tab":13530,"tong":13531,"inch":13532,"hem":13533,"icals":13534,"agent":13535,"justify":13536,"Italy":13537,"ension":13538,"CHO":13539,"headline":13540,"🇺🇸🇺🇸🇺🇸🇺🇸🇺🇸🇺🇸":13541,"Proof":13542,"Prayer":13543,"Deplor":13544,"sleeping":13545,"********":13546,"constant":13547,"Maga":13548,"TRAITORS":13549,"achieve":13550,"AWAY":13551,"Emer":13552,"OG":13553,"RIST":13554,"Rub":13555,"Taylor":13556,"gus":13557,"twit":13558,"uto":13559,"widespread":13560,"جي":13561,"itation":13562,"resources":13563,"Whistle":13564,"launder":13565,"ISA":13566,"registr":13567,"FoxNews":13568,"friendly":13569,"cession":13570,"statue":13571,"Jew":13572,"Judges":13573,"studies":13574,"Term":13575,"muslims":13576,"connection":13577,"manipulated":13578,"pigs":13579,"introdu":13580,"Rules":13581,"Utah":13582,"SOROS":13583,"Center":13584,"Fant":13585,"Fel":13586,"Iv":13587,"RR":13588,"bite":13589,"batt":13590,"cali":13591,"fits":13592,"rever":13593,"heavy":13594,"ament":13595,"kel":13596,"Thous":13597,"apt":13598,"quarant":13599,"takeover":13600,"Sheep":13601,"warrant":13602,"international":13603,"legitim":13604,"failing":13605,"Quit":13606,"grandchildren":13607,"sheeple":13608,"Problem":13609,"cabinet":13610,"Queen":13611,"Promises":13612,"Science":13613,"institutions":13614,"understood":13615,"GRESS":13616,"MR":13617,"Rid":13618,"Tony":13619,"oxy":13620,"tent":13621,"eras":13622,"reward":13623,"asion":13624,"adel":13625,"weather":13626,"suff":13627,"Hear":13628,"launch":13629,"coat":13630,"coast":13631,"Neither":13632,"Dog":13633,"runoff":13634,"ليه":13635,"Correct":13636,"Williams":13637,"adores":13638,"mistakes":13639,"Idiots":13640,"Target":13641,"Email":13642,"Pen":13643,"VOL":13644,"glor":13645,"hind":13646,"pas":13647,"rud":13648,"whoever":13649,"Intell":13650,"insight":13651,"Cool":13652,"Truly":13653,"Having":13654,"refuses":13655,"hurting":13656,"Hoax":13657,"POST":13658,"كنت":13659,"electric":13660,"AFTER":13661,"bloody":13662,"christi":13663,"Korea":13664,"Cover":13665,"Dou":13666,"Hong":13667,"ML":13668,"Sim":13669,"Saw":13670,"Simple":13671,"tant":13672,"vast":13673,"وس":13674,"🏃🏻":13675,"isol":13676,"ophy":13677,"goods":13678,"attitude":13679,"legs":13680,"entific":13681,"GreatAwakening":13682,"bible":13683,"bidencrimefamily":13684,"Planned":13685,"appeared":13686,"protestors":13687,"kicking":13688,"RINOS":13689,"Shows":13690,"raped":13691,"SAVE":13692,"manipulation":13693,"predict":13694,"Riot":13695,"convention":13696,"PERSON":13697,"April":13698,"61":13699,"Bast":13700,"MAG":13701,"Simp":13702,"Self":13703,"icy":13704,"accep":13705,"forcing":13706,"verted":13707,"trou":13708,"mock":13709,"convic":13710,"georg":13711,"ANGE":13712,"herit":13713,"ISE":13714,"display":13715,"OUD":13716,"uded":13717,"spine":13718,"Martial":13719,"senti":13720,"BELIE":13721,"mommy":13722,"Spot":13723,"OOD":13724,"banning":13725,"hunting":13726,"reminder":13727,"💯💯💯💯":13728,"relationship":13729,"51":13730,"Tre":13731,"dot":13732,"jun":13733,"skills":13734,"زن":13735,"زي":13736,"atics":13737,"ruled":13738,"lobo":13739,"irk":13740,"shirts":13741,"doomed":13742,"ols":13743,"USPS":13744,"cogn":13745,"ESO":13746,"represents":13747,"sham":13748,"senile":13749,"yellow":13750,"gery":13751,"Everybody":13752,"promoting":13753,"behalf":13754,"Demand":13755,"fooled":13756,"confisc":13757,"ignoring":13758,"fortunate":13759,"Russians":13760,"PERI":13761,"disgusted":13762,"random":13763,"VIRUS":13764,"ZERO":13765,"saveourchildren":13766,"Ber":13767,"MF":13768,"Meg":13769,"Ugh":13770,"narciss":13771,"rout":13772,"👊👊":13773,"😱😱":13774,"unle":13775,"blown":13776,"aska":13777,"Loeffler":13778,"ASH":13779,"corrup":13780,"badly":13781,"demor":13782,"ACTION":13783,"OPEN":13784,"systemic":13785,"extent":13786,"extrem":13787,"walks":13788,"Perdue":13789,"dictators":13790,"🔥🔥🔥🔥":13791,"shocking":13792,"tactic":13793,"Strong":13794,"specifically":13795,"clothing":13796,"mesmo":13797,"gorith":13798,"split":13799,"Vegas":13800,"Cy":13801,"Fat":13802,"een":13803,"تون":13804,"’.":13805,"😇😇":13806,"orse":13807,"ester":13808,"stress":13809,"icient":13810,"admin":13811,"Thursday":13812,"una":13813,"sos":13814,"blast":13815,"plandemic":13816,"REG":13817,"afia":13818,"TRUST":13819,"contra":13820,"contract":13821,"demented":13822,"stayed":13823,"GEORG":13824,"answered":13825,"Juan":13826,"fuel":13827,"knife":13828,"leaning":13829,"BBC":13830,"PROTE":13831,"focused":13832,"disturbing":13833,"Chair":13834,"Hot":13835,"MES":13836,"MASS":13837,"Pau":13838,"Stra":13839,"imo":13840,"شی":13841,"replac":13842,"kee":13843,"uries":13844,"sole":13845,"ansas":13846,"insist":13847,"Section":13848,"pork":13849,"DEMS":13850,"phr":13851,"murdering":13852,"instruction":13853,"activist":13854,"heroes":13855,"profession":13856,"🇺🇲🇺🇲🇺🇲🇺🇲":13857,"🚨🚨🚨🚨":13858,"location":13859,"symptoms":13860,"agrees":13861,"gentle":13862,"Digital":13863,"affidavits":13864,"jesus":13865,"renochrome":13866,"Der":13867,"Fur":13868,"FED":13869,"Lor":13870,"bureau":13871,"patr":13872,"ron":13873,"sport":13874,"لى":13875,"ulating":13876,"THR":13877,"الأ":13878,"OUP":13879,"enses":13880,"lawful":13881,"TODAY":13882,"popcorn":13883,"Spread":13884,"representative":13885,"examples":13886,"mentality":13887,"Jimmy":13888,"Maxwell":13889,"determine":13890,"convenient":13891,"sheriff":13892,"accusations":13893,"shithole":13894,"Allow":13895,"CLE":13896,"Jerry":13897,"Sent":13898,"Tem":13899,"jah":13900,"map":13901,"sane":13902,"wolf":13903,"lled":13904,"ario":13905,"forbid":13906,"disput":13907,"Decl":13908,"Ref":13909,"context":13910,"regret":13911,"Brad":13912,"Congrats":13913,"illegitimate":13914,"fails":13915,"filth":13916,"همه":13917,"Wasn":13918,"punish":13919,"existence":13920,"ittenhouse":13921,"Maxine":13922,"embarrassing":13923,"authorities":13924,"Citizen":13925,"infiltrated":13926,"faggot":13927,"rampant":13928,"Bloom":13929,"FIN":13930,"Pom":13931,"Race":13932,"fence":13933,"🍿🍿":13934,"ortion":13935,"shield":13936,"sore":13937,"pover":13938,"arts":13939,"PresidentTrump":13940,"اله":13941,"osex":13942,"ivan":13943,"angers":13944,"CHRIST":13945,"phia":13946,"violated":13947,"harvesting":13948,"murders":13949,"Viet":13950,"VoterFraud":13951,"subscribe":13952,"Jersey":13953,"Gaetz":13954,"mongering":13955,"Francisco":13956,"coincidence":13957,"conflict":13958,"Enemy":13959,"LGBT":13960,"BELIEVE":13961,"ESOME":13962,"07":13963,"Bunch":13964,"Hes":13965,"Kick":13966,"Mont":13967,"NRA":13968,"RUN":13969,"Spo":13970,"SLA":13971,"TOT":13972,"bul":13973,"iest":13974,"tail":13975,"ência":13976,"اط":13977,"كده":13978,"theories":13979,"esp":13980,"alid":13981,"lia":13982,"aded":13983,"consci":13984,"theirs":13985,"justices":13986,"sale":13987,"inson":13988,"syn":13989,"fundam":13990,"bigtech":13991,"bitter":13992,"elsewhere":13993,"scream":13994,"film":13995,"Calling":13996,"receiving":13997,"legislatures":13998,"hopes":13999,"digit":14000,"tudo":14001,"occurred":14002,"twisted":14003,"exclusive":14004,"reliable":14005,"Fil":14006,"HAR":14007,"Ride":14008,"VEN":14009,"VING":14010,"dust":14011,"gic":14012,"mitted":14013,"paul":14014,"acqu":14015,"Trumpers":14016,"illed":14017,"THOSE":14018,"proceed":14019,"selfish":14020,"lovely":14021,"figures":14022,"misinformation":14023,"PRESS":14024,"Remind":14025,"collective":14026,"SidneyPowell":14027,"Swed":14028,"Phone":14029,"EVEN":14030,"POLICE":14031,"Dobbs":14032,"Young":14033,"adelphia":14034,"96":14035,";)":14036,"fet":14037,"tank":14038,"anced":14039,"assem":14040,"alert":14041,"nels":14042,"odes":14043,"congrat":14044,"iment":14045,"apple":14046,"proving":14047,"هههههههههههه":14048,"presence":14049,"shutting":14050,"dumbest":14051,"Patriotic":14052,"diversity":14053,"falls":14054,"Socialists":14055,"totalitarian":14056,"fingers":14057,"defeated":14058,"Hawley":14059,"BALLOTS":14060,"BARR":14061,"MUCH":14062,"heavi":14063,"97":14064,"Abor":14065,"Bit":14066,"Twe":14067,"cable":14068,"cue":14069,"dwell":14070,"vill":14071,"حبي":14072,"asile":14073,"idos":14074,"confront":14075,"imbe":14076,"cohol":14077,"ToSaveAmerica":14078,"finest":14079,"payers":14080,"NYT":14081,"fairly":14082,"thanksgiving":14083,"Laws":14084,"distance":14085,"buddies":14086,"satis":14087,"طلع":14088,"restore":14089,"Censorship":14090,"clueless":14091,"ABSOLUTELY":14092,"poverty":14093,"EVID":14094,"Game":14095,"SAME":14096,"aqui":14097,"null":14098,"numerous":14099,"حق":14100,"essee":14101,"ales":14102,"opens":14103,"prick":14104,"🇺🇸🙏":14105,"ulting":14106,"root":14107,"Therefore":14108,"imprison":14109,"Sec":14110,"bug":14111,"handlers":14112,"Moon":14113,"chamber":14114,"jailed":14115,"saveamerica":14116,"peacefully":14117,"capacity":14118,"Medic":14119,"younger":14120,"rapist":14121,"Ignor":14122,"AWESOME":14123,"supply":14124,"pizzagate":14125,"sisters":14126,"rensic":14127,"Joseph":14128,"gressives":14129,"PERIOD":14130,"Bank":14131,"Data":14132,"Dirty":14133,"HUM":14134,"IOUS":14135,"Jell":14136,"Kerry":14137,"Saudi":14138,"flee":14139,"lunch":14140,"mike":14141,"يوم":14142,"💰💰":14143,"beauty":14144,"lihood":14145,"peo":14146,"comun":14147,"...?":14148,"concept":14149,"excuses":14150,"counsel":14151,"obed":14152,"bridge":14153,"hook":14154,"STFU":14155,"Almighty":14156,"avo":14157,"liberalism":14158,"Killary":14159,"قلبي":14160,"🙌🏻🙌🏻":14161,"emotional":14162,"Committee":14163,"GEORGIA":14164,"1A":14165,"92":14166,"Fail":14167,"Jon":14168,"Jake":14169,"Pie":14170,"Ton":14171,"Yo":14172,"aut":14173,"cos":14174,"tap":14175,"حب":14176,"onde":14177,"endo":14178,"adop":14179,"deranged":14180,"disci":14181,"ICAL":14182,"freely":14183,"genuine":14184,"breathe":14185,"logist":14186,"pedos":14187,"Anybody":14188,"buried":14189,"Caller":14190,"soldier":14191,"Feinstein":14192,"India":14193,"kag2020":14194,"switched":14195,"confirmation":14196,"Matthew":14197,"suspicious":14198,"Tennessee":14199,"Ivanka":14200,"Ain":14201,"Cops":14202,"Low":14203,"شاء":14204,"چه":14205,"inner":14206,"toe":14207,"verification":14208,"amm":14209,"dol":14210,"...\"":14211,"suing":14212,"grass":14213,"Donna":14214,"accuse":14215,"phy":14216,"Suprem":14217,"HEAD":14218,"deeply":14219,"refusing":14220,"ophob":14221,"Echoed":14222,"witnessed":14223,"fascism":14224,"origin":14225,"brainwashing":14226,"holiday":14227,"explos":14228,"participate":14229,"Abra":14230,"Sharia":14231,"Radical":14232,"mountain":14233,"dreams":14234,"MILIT":14235,"Mas":14236,"Said":14237,"WOM":14238,"democr":14239,"ov":14240,"py":14241,"tard":14242,"هن":14243,"stamp":14244,"ching":14245,"trillion":14246,"cks":14247,"label":14248,"ums":14249,"oses":14250,"heading":14251,"monu":14252,"Brilliant":14253,"norm":14254,"transfer":14255,"glass":14256,"EXPOS":14257,"cameras":14258,"reminds":14259,"Terrorists":14260,"vacation":14261,"anarchy":14262,"Systems":14263,"RACIST":14264,"Dict":14265,"Photo":14266,"Wit":14267,"kers":14268,"ví":14269,"wtf":14270,"ثر":14271,"asel":14272,"alin":14273,"lips":14274,"ounder":14275,"whats":14276,"ANOTHER":14277,"partner":14278,"scar":14279,"Marine":14280,"winter":14281,"ALLOW":14282,"cede":14283,"voke":14284,"controls":14285,"slaughter":14286,"magaz":14287,"offices":14288,"bully":14289,"archy":14290,"stays":14291,"appreciated":14292,"circle":14293,"begging":14294,"disgraceful":14295,"expensive":14296,"Silent":14297,"twexit":14298,"hunterbiden":14299,"----------------":14300,"chestr":14301,"abandoned":14302,"Tyranny":14303,"Roy":14304,"gif":14305,"ismo":14306,"esto":14307,"itable":14308,"stations":14309,"beloved":14310,"forgiven":14311,"rush":14312,"chat":14313,"ading":14314,"irds":14315,"deliber":14316,"assim":14317,"Steven":14318,"ullivan":14319,"Joy":14320,"watchers":14321,"formation":14322,"legacy":14323,"demic":14324,"finds":14325,"yea":14326,"invalid":14327,"preserve":14328,"واحد":14329,"sales":14330,"Judicial":14331,"larger":14332,"currency":14333,"concerns":14334,"fruit":14335,"SERV":14336,"Philadelphia":14337,"collapse":14338,"87":14339,"CED":14340,"GUN":14341,"HR":14342,"PEN":14343,"Prep":14344,"Sit":14345,"bread":14346,"jour":14347,"mud":14348,"nancy":14349,"pha":14350,"pundit":14351,"papers":14352,"اذا":14353,"anime":14354,"algorith":14355,"owser":14356,"whining":14357,"iron":14358,"2012":14359,"laid":14360,"INTER":14361,"Chan":14362,"Stud":14363,"prov":14364,"presidents":14365,"minions":14366,"truths":14367,"ForTrump":14368,"queen":14369,"breathing":14370,"---":14371,"classified":14372,"patriotism":14373,"crum":14374,"Break":14375,"patience":14376,"777":14377,"package":14378,"fascists":14379,"RIGHTS":14380,"European":14381,"Candid":14382,"permanent":14383,"judgement":14384,"tongue":14385,"Apo":14386,"Bon":14387,"BOLSONAR":14388,"Cant":14389,"HIST":14390,"LINE":14391,"Nasty":14392,"Sk":14393,"قص":14394,"••":14395,"anto":14396,"removing":14397,"stars":14398,"healing":14399,"ofthe":14400,"lil":14401,"compreh":14402,"epstein":14403,"estão":14404,"backbone":14405,"guise":14406,"Contact":14407,"Forget":14408,"topic":14409,"viruses":14410,"LIM":14411,"votered":14412,"Agenda":14413,"Blacks":14414,"cape":14415,"twatter":14416,"GenFlynn":14417,"pense":14418,"occup":14419,"Marklevinshow":14420,"Yorkers":14421,"dropping":14422,"activists":14423,"SUCK":14424,"miracle":14425,"Assange":14426,"fantasy":14427,"pipe":14428,"triggered":14429,"significant":14430,"Switched":14431,"Thousands":14432,".?":14433,"?)":14434,"CER":14435,"HAM":14436,"Mine":14437,"Psy":14438,"Ray":14439,"Suck":14440,"TU":14441,"Troll":14442,"cuck":14443,"dime":14444,"ego":14445,"honey":14446,"rh":14447,"rag":14448,"ês":14449,"كذا":14450,"يل":14451,"retr":14452,"lla":14453,"seas":14454,"acing":14455,"chuck":14456,"epic":14457,"INTO":14458,"Presidents":14459,"OTT":14460,"ORDER":14461,"shitty":14462,"athlet":14463,"MOVE":14464,"Point":14465,"MAIL":14466,"flipped":14467,"chances":14468,"returns":14469,"deceit":14470,"Prime":14471,"REPUBLICAN":14472,"Pete":14473,"ultimately":14474,"acknowledge":14475,"Intellig":14476,"Straight":14477,"EVIDENCE":14478,"Cat":14479,"Gonna":14480,"Hom":14481,"Ira":14482,"XIT":14483,"maker":14484,"ua":14485,"🏴󠁧":14486,"🔥🇺🇸":14487,"initi":14488,"revers":14489,"isto":14490,"seed":14491,"fro":14492,"consent":14493,"ational":14494,"sum":14495,"endorse":14496,"Soci":14497,"hadn":14498,"Cooper":14499,"bullets":14500,"Covid19":14501,"Congressman":14502,"راح":14503,"director":14504,"Research":14505,"Scary":14506,"laughed":14507,"salary":14508,"NAZI":14509,"دیگه":14510,"SeanHannity":14511,"CHINES":14512,"rumble":14513,"greedy":14514,"avanaugh":14515,"grocery":14516,"Article":14517,"تويتر":14518,"Bloomberg":14519,"🏴󠁧󠁢":14520,"Each":14521,"Fort":14522,"Luc":14523,"Making":14524,"Nick":14525,"OCK":14526,"ís":14527,"دة":14528,"یا":14529,"💕💕":14530,"aspect":14531,"icious":14532,"begun":14533,"oppress":14534,"logo":14535,"dose":14536,"sover":14537,"istas":14538,"frig":14539,"franch":14540,"feito":14541,"riage":14542,"..........":14543,"eler":14544,"roid":14545,"disinformation":14546,"iven":14547,"prem":14548,"Bee":14549,"realdonaldtrump":14550,"Reve":14551,"minimum":14552,"playbook":14553,"prophe":14554,"carried":14555,"Greatest":14556,"covers":14557,"Mrs":14558,"Congressional":14559,"singing":14560,"Californ":14561,"Fakebook":14562,"WINS":14563,"________":14564,"Irish":14565,"wasting":14566,"fighter":14567,"throat":14568,"Patrick":14569,"Lemon":14570,"Bud":14571,"Bub":14572,"Fol":14573,"cate":14574,"lou":14575,"شد":14576,"orchestr":14577,"edit":14578,"adem":14579,"Wel":14580,"hasht":14581,"ERAL":14582,"bert":14583,"boom":14584,"الان":14585,"fao":14586,"decade":14587,"Commies":14588,"Key":14589,"refre":14590,"Small":14591,"established":14592,"jackass":14593,"lefties":14594,"🤣🤣🤣🤣🤣🤣🤣🤣🤣🤣🤣🤣🤣🤣🤣🤣":14595,"Officer":14596,"moderate":14597,"attempts":14598,"determined":14599,"iciary":14600,"whistleblower":14601,"BETTER":14602,"satisf":14603,"Iraq":14604,"Ash":14605,"Fu":14606,"IFB":14607,"Tu":14608,"wan":14609,"سل":14610,"شم":14611,"thief":14612,"thes":14613,"beach":14614,"hamm":14615,"rup":14616,"TheGreatAwakening":14617,"irregularities":14618,"outta":14619,"agger":14620,"fright":14621,"expand":14622,"hisl":14623,"Into":14624,"disappointment":14625,"goti":14626,"reparations":14627,"Exper":14628,"monkey":14629,"Lef":14630,"kinds":14631,"passion":14632,"SOB":14633,"Dementia":14634,"Boom":14635,"Results":14636,"ولی":14637,"crush":14638,"STOPTHE":14639,"tools":14640,"attorneys":14641,"Ellis":14642,"Obamagate":14643,"incredibly":14644,"betrayed":14645,"heavily":14646,"BOLSONARO":14647,"Gret":14648,"Pig":14649,"Wik":14650,"golf":14651,"powell":14652,"ón":14653,"ós":14654,"reference":14655,"isher":14656,"beth":14657,"liv":14658,"oppose":14659,"etle":14660,"peas":14661,"ula":14662,"uls":14663,"ISL":14664,"dismant":14665,"Doctor":14666,"player":14667,"drome":14668,"hardly":14669,"questioning":14670,"messed":14671,"foolish":14672,"14th":14673,"occas":14674,"recorded":14675,"bolsonaro":14676,"various":14677,"deplorables":14678,"puppets":14679,"BG":14680,"HOPE":14681,"Oops":14682,"Ze":14683,"fate":14684,"hats":14685,"جر":14686,"جل":14687,"ظر":14688,"هذا":14689,"inals":14690,"até":14691,"escape":14692,"outright":14693,"peep":14694,"...”":14695,"pton":14696,"DOMIN":14697,"invite":14698,"Meet":14699,"idiotic":14700,"files":14701,"loyalty":14702,"honesty":14703,"$$$":14704,"explained":14705,"2008":14706,"برنا":14707,"guilt":14708,"Jackson":14709,"rifying":14710,"corecard":14711,"CRIME":14712,"lunatic":14713,"tolerate":14714,"Major":14715,"COURT":14716,"Fascist":14717,"Crooked":14718,"suggestion":14719,"environment":14720,"Vietnam":14721,"41":14722,"Climate":14723,"GER":14724,"LU":14725,"Rod":14726,"Sullivan":14727,"Taking":14728,"UAL":14729,"range":14730,"vness":14731,"مث":14732,"پی":14733,"edia":14734,"stain":14735,"conscience":14736,"anyways":14737,"Week":14738,"approve":14739,"berry":14740,"Conne":14741,"Consider":14742,"bigot":14743,"libertarian":14744,"BLUE":14745,"interfer":14746,"cesspool":14747,"aughters":14748,"cuts":14749,"Prove":14750,"LOST":14751,"bury":14752,"murderer":14753,"tape":14754,"enjoying":14755,"divis":14756,"reaching":14757,"packing":14758,"embarrassed":14759,"cowardly":14760,"Rule":14761,"gateway":14762,"CORRUPTION":14763,"Massive":14764,"Hawai":14765,"militia":14766,"Blaze":14767,"Woke":14768,"purchase":14769,"vigil":14770,"deplorable":14771,"prosecutor":14772,"labeled":14773,"circumstances":14774,"Abraham":14775,"BRO":14776,"Fall":14777,"HOLD":14778,"IED":14779,"JW":14780,"KING":14781,"Learn":14782,"Nash":14783,"Pak":14784,"Piss":14785,"SN":14786,"VIL":14787,"dit":14788,"fk":14789,"pump":14790,"pennsylvania":14791,"تف":14792,"لله":14793,"ولي":14794,"incar":14795,"otic":14796,"unrest":14797,"upvote":14798,"abused":14799,"acks":14800,"uled":14801,"appointing":14802,"endless":14803,"pregn":14804,"fights":14805,"Relig":14806,"forming":14807,"interpret":14808,"Explain":14809,"Asking":14810,"mouths":14811,"scientific":14812,"custom":14813,"footage":14814,"Shouldn":14815,"feeding":14816,"Lockdown":14817,"ancest":14818,"shopping":14819,"percentage":14820,"Regard":14821,"encouraged":14822,"encouraging":14823,"Investigation":14824,"graham":14825,"Propaganda":14826,"scientists":14827,"Aww":14828,"Easy":14829,"MEN":14830,"Nunes":14831,"Phar":14832,"Van":14833,"Water":14834,"eb":14835,"ray":14836,"🤢🤢":14837,"infect":14838,"owed":14839,"agues":14840,"odds":14841,"concent":14842,"ills":14843,"posure":14844,"Anthony":14845,"izar":14846,"Gore":14847,"ITT":14848,"makeamericagreat":14849,"frauds":14850,"DeBlasio":14851,"اره":14852,"cured":14853,"casm":14854,"CONGRESS":14855,"Lawsuit":14856,"enjoyed":14857,"tempor":14858,"boxes":14859,"ooooo":14860,"honorable":14861,"Treasonous":14862,"sched":14863,"providing":14864,"Officials":14865,"REPUBLICANS":14866,"Larry":14867,"privileged":14868,"Italian":14869,"Whistleblower":14870,"2a":14871,"Aren":14872,"Cross":14873,"Les":14874,"Liz":14875,"Lisa":14876,"Pot":14877,"Pundit":14878,"Tam":14879,"dup":14880,"fla":14881,"junk":14882,"lists":14883,"merely":14884,"تش":14885,"صور":14886,"👌🏻":14887,"👏🏽":14888,"inct":14889,"reap":14890,"rejected":14891,"entity":14892,"abama":14893,"respected":14894,"blasio":14895,"acey":14896,"Independence":14897,"ghan":14898,"McCar":14899,"CLUS":14900,"grees":14901,"nurse":14902,"despise":14903,"LOSI":14904,"looters":14905,"kneeling":14906,"Friends":14907,"Cle":14908,"Coney":14909,"Kids":14910,"NV":14911,"Pull":14912,"Tok":14913,"cave":14914,"uate":14915,"zomb":14916,"🐍🐍":14917,"reput":14918,"inge":14919,"aco":14920,"ette":14921,"unarmed":14922,"🇺🇸💙":14923,"الناس":14924,"series":14925,"suppression":14926,"prolife":14927,"funeral":14928,"انك":14929,"truthful":14930,"Libt":14931,"blessings":14932,"north":14933,"operate":14934,"Pardon":14935,"filling":14936,"spoiled":14937,"Charles":14938,"Woods":14939,"approval":14940,"DEMAND":14941,"Review":14942,"crossed":14943,"equality":14944,"نیست":14945,"Kinda":14946,"Igno":14947,"condemn":14948,"SOCIALIST":14949,"godblessamerica":14950,"IDIOT":14951,"Pompeo":14952,"Div":14953,"Hil":14954,"TEX":14955,"bent":14956,"cous":14957,"ras":14958,"rade":14959,"وين":14960,"inha":14961,"alcohol":14962,"hag":14963,"haw":14964,"tered":14965,"exchange":14966,"indicted":14967,"mann":14968,"manif":14969,"affair":14970,"ITION":14971,"TRO":14972,"lawed":14973,"Expose":14974,"🇺🇸🇺🇸🇺🇸🇺🇸🇺🇸🇺🇸🇺🇸":14975,"NEY":14976,"representation":14977,"marked":14978,"Iranian":14979,"challenged":14980,"😡😡😡😡😡😡😡😡":14981,"كيف":14982,"pension":14983,"Southern":14984,"Machines":14985,"Az":14986,"DM":14987,"GRE":14988,"HANG":14989,"Sof":14990,"Sweet":14991,"Tik":14992,"bb":14993,"bang":14994,"cke":14995,"dat":14996,"fizer":14997,"ilos":14998,"rare":14999,"wine":15000,"عاي":15001,"upport":15002,"upload":15003,"anytime":15004,"artist":15005,"roots":15006,"Whats":15007,"bleed":15008,"await":15009,"parlor":15010,"shake":15011,"ونه":15012,"subur":15013,"silver":15014,"proudboys":15015,"MAX":15016,"destructive":15017,"hypocritical":15018,"cleaning":15019,"shameful":15020,"celebrities":15021,"rifle":15022,"Waiting":15023,"🤡🤡🤡🤡":15024,"gathering":15025,"anarchists":15026,"FIRE":15027,"guts":15028,"historic":15029,"historical":15030,"SATAN":15031,"MILITARY":15032,"DOMINION":15033,"makeamericagreatagain":15034,"!...":15035,"93":15036,"::":15037,"HAND":15038,"swee":15039,"zes":15040,"بب":15041,"👊🏼":15042,"😘😘":15043,"inn":15044,"ala":15045,"owars":15046,"lio":15047,"outlet":15048,"gods":15049,"ifty":15050,"obtain":15051,"bogus":15052,"ATIVE":15053,"hoe":15054,"describe":15055,"ipment":15056,"repent":15057,"citing":15058,"Georg":15059,"central":15060,"nervous":15061,"complex":15062,"IRS":15063,"Board":15064,"Spy":15065,"murderers":15066,"driven":15067,"??????":15068,"linked":15069,"confess":15070,"picking":15071,"existing":15072,"CANNOT":15073,"celebrating":15074,"الحمد":15075,"666":15076,"sacrific":15077,"infection":15078,"Bravo":15079,"melt":15080,"Guns":15081,"frustrating":15082,"فقط":15083,"Friend":15084,"retirement":15085,"Operation":15086,"measures":15087,"Daniel":15088,"craft":15089,"Kentucky":15090,"خیلی":15091,"SELF":15092,"preparing":15093,"Jello":15094,"?...":15095,"AU":15096,"Dian":15097,"Fix":15098,"GT":15099,"NED":15100,"NESS":15101,"RS":15102,"Rittenhouse":15103,"Sing":15104,"Test":15105,"baugh":15106,"daughters":15107,"flynn":15108,"gam":15109,"gmail":15110,"pac":15111,"ری":15112,"enrich":15113,"sting":15114,"sobre":15115,"roy":15116,"inee":15117,"Beat":15118,"athers":15119,"ahar":15120,"poster":15121,"eges":15122,"factual":15123,"surgery":15124,"OSS":15125,"Bron":15126,"blessing":15127,"وني":15128,"😂😂😂😂😂😂":15129,"purge":15130,"TuckerCarlson":15131,"releasing":15132,"traitorous":15133,"25th":15134,"decline":15135,"demonrats":15136,"faster":15137,"FightBack":15138,"Austin":15139,"employee":15140,"Babylon":15141,"struggle":15142,"minorities":15143,"TERRORIST":15144,"👇🏻👇🏻":15145,"bubble":15146,"fabric":15147,"McCarthy":15148,"CLUSIVE":15149,"?!!":15150,"Battle":15151,"BILL":15152,"Mid":15153,"Pit":15154,"Roll":15155,"Sess":15156,"Xi":15157,"buck":15158,"ued":15159,"éns":15160,"ític":15161,"🦗🦗":15162,"inev":15163,"inqu":15164,"erad":15165,"acists":15166,"negoti":15167,"abéns":15168,"conquer":15169,"Trumper":15170,"antes":15171,"Heard":15172,"overcome":15173,"backwards":15174,"beings":15175,"possess":15176,"Recall":15177,"Doctors":15178,"flesh":15179,"monitor":15180,"ssss":15181,"MeWe":15182,"seemed":15183,"😭😭😭":15184,"roads":15185,"🇧🇷🇧🇷🇧🇷🇧🇷":15186,"Victor":15187,"kool":15188,"associated":15189,"intimidation":15190,"surrounded":15191,"lobby":15192,"ھھھھ":15193,"Somal":15194,"elitist":15195,"esquerda":15196,"Psalm":15197,"Besides":15198,"absurd":15199,"250":15200,"BAL":15201,"Double":15202,"Sound":15203,"Ul":15204,"hater":15205,"vor":15206,"زل":15207,"🖕🏽":15208,"thri":15209,"enas":15210,"ami":15211,"lover":15212,"uns":15213,"unborn":15214,"unked":15215,"defunding":15216,"meds":15217,"Goya":15218,"proced":15219,"spew":15220,"contribution":15221,"liberties":15222,"paras":15223,"topher":15224,"Alabama":15225,"pointed":15226,"caring":15227,"slam":15228,"FORM":15229,"solved":15230,"Ark":15231,"cuffs":15232,"denial":15233,"RESIST":15234,"ADA":15235,"cultural":15236,"zzle":15237,"canceled":15238,"TedCruz":15239,"Surely":15240,"baseball":15241,"Turkey":15242,"FYI":15243,"resolve":15244,"Fantastic":15245,"PROTECT":15246,"Bay":15247,"Based":15248,"EACH":15249,"HUN":15250,"Page":15251,"dling":15252,"nap":15253,"raged":15254,"scan":15255,"tards":15256,"remo":15257,"soever":15258,"degrees":15259,"ctuary":15260,"herent":15261,"RET":15262,"START":15263,"IDS":15264,"spewing":15265,"betting":15266,"shape":15267,"senior":15268,"Orwell":15269,"holdthe":15270,"americans":15271,"ogate":15272,"capt":15273,"numbered":15274,"arguments":15275,"budget":15276,"alleged":15277,"hibit":15278,"equally":15279,"Appe":15280,"supremacy":15281,"supremacist":15282,"Personally":15283,"disrespectful":15284,"Smartmatic":15285,"pessoas":15286,"Ridiculous":15287,"phrase":15288,"digitalso":15289,"sovereign":15290,"800":15291,":-":15292,"Eat":15293,"Ko":15294,"Literally":15295,"Pati":15296,"SUR":15297,"Tor":15298,"jor":15299,"pink":15300,"pope":15301,"qarmy":15302,"sword":15303,"مك":15304,"seven":15305,"chess":15306,"christ":15307,"uncle":15308,"offered":15309,"USH":15310,"spam":15311,"LETS":15312,"azz":15313,"cyber":15314,"naive":15315,"violating":15316,"trolling":15317,"Activ":15318,"Between":15319,"nosso":15320,"👏🏻👏🏻👏🏻👏🏻":15321,"increasing":15322,"dumped":15323,"possibility":15324,"Criminals":15325,"Safe":15326,"sharp":15327,"deported":15328,"bassador":15329,"District":15330,"Emergency":15331,"Byr":15332,"FER":15333,"FAR":15334,"Kavanaugh":15335,"Lam":15336,"SW":15337,"Sav":15338,"cats":15339,"jur":15340,"lick":15341,"uous":15342,"عار":15343,"oning":15344,"vets":15345,"etrump":15346,"prices":15347,"notes":15348,"Heather":15349,"Answ":15350,"colo":15351,"الر":15352,"managed":15353,"ashes":15354,"IGH":15355,"chado":15356,"ماع":15357,"velation":15358,"Corpor":15359,"passes":15360,"Afghan":15361,"Disgrace":15362,"eternal":15363,"Respect":15364,"روح":15365,"beaten":15366,"reached":15367,"Demonrats":15368,"deception":15369,"Veteran":15370,"scenes":15371,"Author":15372,"annoying":15373,"repeatedly":15374,"Abortion":15375,"Witness":15376,"Intelligence":15377,"Bannon":15378,"CB":15379,"Hosp":15380,"Nike":15381,"Rise":15382,"Shad":15383,"pound":15384,"🙌🙌":15385,"erase":15386,"arson":15387,"idays":15388,"opes":15389,"nem":15390,"trav":15391,"upside":15392,"indy":15393,"Story":15394,"probe":15395,"affected":15396,"permission":15397,"Shells":15398,"Bell":15399,"underestim":15400,"Doing":15401,"NewsMax":15402,"contest":15403,"damendment":15404,"philos":15405,"issued":15406,"popul":15407,"differently":15408,"FAI":15409,"stepping":15410,"prisoners":15411,"privacy":15412,"courageous":15413,"felony":15414,"amounts":15415,"complaining":15416,"Peaceful":15417,"hillary":15418,"Schools":15419,"Debate":15420,"assistance":15421,"outrageous":15422,"additional":15423,"universities":15424,"oxygen":15425,"برنامج":15426,"ancestors":15427,"((":15428,"Drug":15429,"FDA":15430,"Hol":15431,"Less":15432,"Raff":15433,"SD":15434,"Tired":15435,"mfao":15436,"pode":15437,"sack":15438,"لة":15439,"ية":15440,"rely":15441,"llll":15442,"items":15443,"acies":15444,"chip":15445,"adas":15446,"ource":15447,"osha":15448,"fazer":15449,"ival":15450,"desk":15451,"Food":15452,"anner":15453,"areness":15454,"Together":15455,"aze":15456,"propos":15457,"FORCE":15458,"PROP":15459,"entirely":15460,"operating":15461,"distraction":15462,"remaining":15463,"عليه":15464,"assuming":15465,"hacked":15466,"ibute":15467,"Event":15468,"intentionally":15469,"WalkAway":15470,"ethnic":15471,"housing":15472,"MASK":15473,"Certain":15474,"CRIMINAL":15475,"Central":15476,"genocide":15477,"toxic":15478,"Tulsi":15479,"athletes":15480,"Nashville":15481,"\"\"":15482,"##":15483,"120":15484,"IANS":15485,"aus":15486,"horses":15487,"ição":15488,"jones":15489,"patter":15490,"vit":15491,"🥰🥰":15492,"recru":15493,"reverse":15494,"ingly":15495,"esa":15496,"chant":15497,"pois":15498,"forensic":15499,"tearing":15500,"cient":15501,"gear":15502,"ONA":15503,"DEC":15504,"FORTRUMP":15505,"Harry":15506,"واق":15507,"antif":15508,"paste":15509,"Biggest":15510,"TERS":15511,"Domestic":15512,"faithful":15513,"EXCLUSIVE":15514,"Standing":15515,"TYR":15516,"digging":15517,"Romans":15518,"certification":15519,"عندي":15520,"amongst":15521,"secretary":15522,"😂😂😂😂😂😂😂😂😂😂😂😂😂😂😂😂":15523,"حتى":15524,"Ellie":15525,"ário":15526,"Asian":15527,"Deplorable":15528,"accepting":15529,"HISTORY":15530,"JelloShells":15531,"://":15532,"Cir":15533,"Democr":15534,"IAN":15535,"Ka":15536,"Lab":15537,"Push":15538,"VACC":15539,"dor":15540,"eight":15541,"hinged":15542,"pto":15543,"slight":15544,"tour":15545,"tens":15546,"ule":15547,"🤢🤮":15548,"insp":15549,"onom":15550,"recover":15551,"enger":15552,"igo":15553,"frank":15554,"cracy":15555,"ainda":15556,"feather":15557,"plate":15558,"rolls":15559,"Uncle":15560,"Prince":15561,"appy":15562,"Took":15563,"contrad":15564,"Libs":15565,"bush":15566,"DEP":15567,"monsters":15568,"drops":15569,"sett":15570,"Worst":15571,"میشه":15572,"hitting":15573,"salvation":15574,"Speak":15575,"احس":15576,"Internet":15577,"deeds":15578,"👏👏👏👏👏👏👏👏":15579,"Used":15580,"Jefferson":15581,"🇬🇧🇬🇧":15582,"identified":15583,"blatantly":15584,"Louisiana":15585,"experienced":15586,"lawlessness":15587,"terrified":15588,".!":15589,"Dev":15590,"DHS":15591,"Fig":15592,"HI":15593,"JUD":15594,"JOB":15595,"Rap":15596,"Santis":15597,"Wars":15598,"Yess":15599,"ditch":15600,"pitch":15601,"rank":15602,"sow":15603,"ske":15604,"نن":15605,"alright":15606,"sein":15607,"acare":15608,"oppression":15609,"oppressed":15610,"pela":15611,"meu":15612,"tez":15613,"elu":15614,"disabled":15615,"follower":15616,"VEST":15617,"arrow":15618,"livelihood":15619,"Whoever":15620,"farce":15621,"cham":15622,"basket":15623,"ElectionFraud":15624,"PELOSI":15625,"womenfortrump":15626,"pandering":15627,"Deport":15628,"inaugurated":15629,"published":15630,"حاجه":15631,"FACTS":15632,"laundering":15633,"registration":15634,"Hawaii":15635,"Lap":15636,"LOT":15637,"Mot":15638,"Twit":15639,"dumber":15640,"fle":15641,"iety":15642,"michigan":15643,"oth":15644,"és":15645,"گفت":15646,"󠁥󠁮":15647,"󠁧󠁿":15648,"indo":15649,"anonymous":15650,"asleep":15651,"amid":15652,"opposed":15653,"neut":15654,"irony":15655,"suic":15656,"redpill":15657,"Stalin":15658,"ALREADY":15659,"raz":15660,"Convention":15661,"flash":15662,"Liar":15663,"margin":15664,"hello":15665,"Johnny":15666,"Council":15667,"firearms":15668,"harsh":15669,"diag":15670,"Parley":15671,"execute":15672,"intel":15673,"🔥🔥🔥":15674,"Hmmmm":15675,"OFFICE":15676,"EEEE":15677,"Huge":15678,"perpetrated":15679,"stabbing":15680,"devast":15681,"segreg":15682,"Veto":15683,"🖕🏼🖕🏼":15684,"NASCAR":15685,"osexual":15686,"🏴󠁧󠁢󠁥󠁮":15687,"Afghanistan":15688,"🏴󠁧󠁢󠁥󠁮󠁧󠁿":15689,"->":15690,".’":15691,"Code":15692,"COULD":15693,"Caught":15694,"Gree":15695,"Nations":15696,"Pick":15697,"Rino":15698,"Sky":15699,"Using":15700,"mates":15701,"ology":15702,"piro":15703,"rod":15704,"ux":15705,"شوي":15706,"نس":15707,"وب":15708,"پار":15709,"🖕🏿":15710,"thou":15711,"anx":15712,"recounts":15713,"icans":15714,"seize":15715,"entagon":15716,"advan":15717,"Through":15718,"aggressive":15719,"upcoming":15720,"abilities":15721,"pron":15722,"goat":15723,"cker":15724,"endors":15725,"exit":15726,"observ":15727,"icken":15728,"ISON":15729,"brasile":15730,"sier":15731,"pervert":15732,"rah":15733,"spying":15734,"lessly":15735,"BLOCK":15736,"creation":15737,"handling":15738,"ava":15739,"yelling":15740,"denying":15741,"Working":15742,"teams":15743,"misery":15744,"Trump2020Landslide":15745,"روز":15746,"furi":15747,"zabeth":15748,"SAID":15749,"YET":15750,"Satanic":15751,"temper":15752,"immigrant":15753,"Racism":15754,"Arrested":15755,"financially":15756,"AAAA":15757,"righteousness":15758,"Semper":15759,"scenario":15760,"الخير":15761,"judgment":15762,"Parenthood":15763,"Profess":15764,"Sweden":15765,"Bubba":15766,"05":15767,"Dy":15768,"Days":15769,"FIL":15770,"Faux":15771,"LIGHT":15772,"POR":15773,"Rose":15774,"SIN":15775,"Vis":15776,"bin":15777,"mile":15778,"nt":15779,"nada":15780,"pil":15781,"vom":15782,"vag":15783,"تها":15784,"هست":15785,"stro":15786,"stable":15787,"owood":15788,"uts":15789,"unacceptable":15790,"dozen":15791,"urd":15792,"votetrump":15793,"reads":15794,"guards":15795,"isma":15796,"timing":15797,"vida":15798,"parade":15799,"cuomo":15800,"Community":15801,"classes":15802,"appeal":15803,"techn":15804,"apology":15805,"مره":15806,"você":15807,"Starting":15808,"Crimes":15809,"Savior":15810,"Esse":15811,"sympathy":15812,"TAX":15813,"television":15814,"wasted":15815,"accomplishments":15816,"tossed":15817,"Moder":15818,"Sarah":15819,"Claims":15820,"SLIDE":15821,",'":15822,"Bomb":15823,"DIE":15824,"Daddy":15825,"MC":15826,"Met":15827,"Ou":15828,"Sac":15829,"WWI":15830,"hha":15831,"kow":15832,"vard":15833,"خير":15834,"دل":15835,"عاد":15836,"”...":15837,"semp":15838,"fora":15839,"wiped":15840,"weasel":15841,"trials":15842,"agle":15843,"goals":15844,"cronies":15845,"🇺🇸🗽":15846,"evident":15847,"Stacy":15848,"dismiss":15849,"letters":15850,"spect":15851,"steel":15852,"Blow":15853,"WEL":15854,"settle":15855,"🙏🏻❤":15856,"transgender":15857,"classify":15858,"Absolute":15859,"kkk":15860,"ELECT":15861,"ATIONS":15862,"aboard":15863,"wheel":15864,"opportun":15865,"داره":15866,"quietly":15867,"busted":15868,"iggers":15869,"BOYC":15870,"Including":15871,"\"!":15872,"06":15873,"Cities":15874,"DEN":15875,"Tele":15876,"Vamos":15877,"Yout":15878,"dé":15879,"fart":15880,"gallows":15881,"rom":15882,"تی":15883,"صدق":15884,"قدر":15885,"👎🏻":15886,"anos":15887,"beard":15888,"ett":15889,"shift":15890,"reser":15891,"degener":15892,"ilk":15893,"whatsoever":15894,"ERT":15895,"grounds":15896,"whenever":15897,"gull":15898,"commission":15899,"STER":15900,"intend":15901,"wherever":15902,"DeSantis":15903,"compare":15904,"SET":15905,"btw":15906,"balance":15907,"sided":15908,"Warnock":15909,"ligible":15910,"FEAR":15911,"fiction":15912,"DeepState":15913,"Desp":15914,"windows":15915,"tracking":15916,"accordingly":15917,"equipment":15918,"Ruby":15919,"نفسي":15920,"developed":15921,"milk":15922,"neighborhoods":15923,"advertising":15924,"Parents":15925,"abolish":15926,"instructions":15927,"HUMAN":15928,"Folks":15929,"Close":15930,"Gal":15931,"Hilarious":15932,"Ol":15933,"UC":15934,"VIE":15935,"Valley":15936,"bob":15937,"gots":15938,"tick":15939,"task":15940,"wound":15941,"🌹🌹":15942,"thick":15943,"reelected":15944,"relax":15945,"timore":15946,"pee":15947,"plag":15948,"river":15949,"evol":15950,"manage":15951,"rend":15952,"ARDS":15953,"greatly":15954,"locking":15955,"persons":15956,"parlers":15957,"nationwide":15958,"propag":15959,"magic":15960,"Christopher":15961,"LYING":15962,"twat":15963,"LAST":15964,"Speaking":15965,"Parabéns":15966,"remote":15967,"Account":15968,"hahahahaha":15969,"blows":15970,"Lockdowns":15971,"billionaire":15972,"🙏🏻🙏🏻🙏🏻🙏🏻":15973,"announce":15974,"marxists":15975,"granted":15976,"vehicle":15977,"compassion":15978,"Immigr":15979,"conscious":15980,"08":15981,"Along":15982,"DATE":15983,"GLO":15984,"KY":15985,"NÃO":15986,"TON":15987,"catholic":15988,"diz":15989,"wage":15990,"قد":15991,"وج":15992,"😝😝":15993,"orial":15994,"toon":15995,"lection":15996,"owa":15997,"whit":15998,"chen":15999,"unfair":16000,"deaf":16001,"cean":16002,"esses":16003,"noise":16004,"oblig":16005,"management":16006,"!!!!!!!!!":16007,"Loved":16008,"laware":16009,"paycheck":16010,"lands":16011,"strict":16012,"SHUT":16013,"stepped":16014,"Cheers":16015,"drives":16016,"penny":16017,"closet":16018,"involvement":16019,"Robinson":16020,"هههههههههههههههههههههههههههههههههههههههههههههههههههههههههههههههه":16021,"painful":16022,"Liberalism":16023,"Surprise":16024,"freaks":16025,"dictatorship":16026,"SOMETHING":16027,"Angeles":16028,"tamper":16029,"sarcasm":16030,"chinese":16031,"Pedophile":16032,"SMH":16033,"Hoping":16034,"Warriors":16035,"productive":16036,"Hussein":16037,"LMFA":16038,"quarantine":16039,"Raffens":16040,"Youtube":16041,"Blood":16042,"BURN":16043,"CRE":16044,"DUMB":16045,"GED":16046,"MD":16047,"Nig":16048,"Opr":16049,"Pfizer":16050,"Rig":16051,"Rinos":16052,"Wing":16053,"bish":16054,"garden":16055,"kamal":16056,"pir":16057,"شما":16058,"قا":16059,"onia":16060,"ictions":16061,"odus":16062,"2010":16063,"tea":16064,"attached":16065,"restr":16066,"AMAZ":16067,"repair":16068,"Online":16069,"invited":16070,"boycot":16071,"nnnn":16072,"Words":16073,"subpo":16074,"Blessings":16075,"فيك":16076,"targets":16077,"بعض":16078,"WakeUp":16079,"allegedly":16080,"graphic":16081,"indoctrinated":16082,"trees":16083,"Gateway":16084,"SUPPOR":16085,"Violence":16086,"Wheeler":16087,"LANDSLIDE":16088,"2Q2Q":16089,"Completely":16090,"torture":16091,"Baltimore":16092,"BA":16093,"Dream":16094,"Eyes":16095,"Half":16096,"IMO":16097,"TIC":16098,"Vol":16099,"aí":16100,"cunts":16101,"gitmo":16102,"lum":16103,"sco":16104,"قبل":16105,"كدا":16106,"مين":16107,"’:":16108,"enfranch":16109,"ingo":16110,"entre":16111,"chop":16112,"ila":16113,"images":16114,"ifies":16115,"justified":16116,"akota":16117,"rier":16118,"exposure":16119,"choosing":16120,"scru":16121,"Foot":16122,"carefully":16123,"demise":16124,"sinc":16125,"strain":16126,"Shot":16127,"violations":16128,"HEAR":16129,"lighting":16130,"cutting":16131,"Jesse":16132,"gonha":16133,"blocks":16134,"biblical":16135,"kingdom":16136,"requested":16137,"radicals":16138,"Dept":16139,"motherfucker":16140,"Crack":16141,"shootings":16142,"channels":16143,"mobile":16144,"announcement":16145,"Wonderful":16146,"puke":16147,"Voice":16148,"statistics":16149,"LISTEN":16150,"Isaiah":16151,"👇🏼👇🏼":16152,"rudge":16153,"EAR":16154,"HY":16155,"Ot":16156,"YA":16157,"bém":16158,"diction":16159,"frequ":16160,"hip":16161,"sque":16162,"تب":16163,"كه":16164,"😔😔":16165,"lethal":16166,"acional":16167,"tier":16168,"ustain":16169,"illa":16170,"blamed":16171,"plug":16172,"hase":16173,"bery":16174,"ankind":16175,"rocket":16176,"Stick":16177,"serves":16178,"dismissed":16179,"stomp":16180,"STRONG":16181,"LEAD":16182,"angle":16183,"Conspir":16184,"AGREE":16185,"handled":16186,"Courts":16187,"diaper":16188,"Trash":16189,"CONT":16190,"Cheating":16191,"closely":16192,"smaller":16193,"picks":16194,"growth":16195,"turkey":16196,"Feds":16197,"feeds":16198,"Philly":16199,"Globalists":16200,"ULT":16201,"tweeted":16202,"WAIT":16203,"nominee":16204,"Defend":16205,"Veritas":16206,"continuing":16207,"marching":16208,"Fredo":16209,"Luke":16210,"Obamacare":16211,"traditional":16212,"conclusion":16213,"Culture":16214,"🌈🌈🌈🌈🌈🌈🌈🌈":16215,"intellectual":16216,"revenue":16217,"Tonight":16218,"2n":16219,"Border":16220,"Dav":16221,"Et":16222,"Gary":16223,"GIV":16224,"Ide":16225,"IBLE":16226,"Kam":16227,"Mir":16228,"Nur":16229,"PRI":16230,"blog":16231,"iors":16232,"saudi":16233,"زين":16234,"فين":16235,"لر":16236,"هلا":16237,"—-":16238,"😄😄":16239,"injustice":16240,"theor":16241,"bee":16242,"liking":16243,"htt":16244,"imal":16245,"iffer":16246,"plastic":16247,"expense":16248,"quo":16249,"overturned":16250,"rence":16251,"scotus":16252,"governo":16253,"Delaware":16254,"Docu":16255,"AllLivesMatter":16256,"helpful":16257,"Ext":16258,"factor":16259,"strings":16260,"Gets":16261,"riding":16262,"colleges":16263,"PROUD":16264,"Progressive":16265,"WarRoom":16266,"Grace":16267,"ولو":16268,"snakes":16269,"qualify":16270,"................":16271,"BOTH":16272,"allegiance":16273,"Kenosha":16274,"defunded":16275,"دارم":16276,"Priv":16277,"Loser":16278,"grief":16279,"deploy":16280,"Company":16281,"Prosecute":16282,"civilization":16283,"Brazil":16284,"orchestrated":16285,"Oprah":16286,"):":16287,"09":16288,"COUP":16289,"Hen":16290,"KR":16291,"Ku":16292,"Kris":16293,"Sever":16294,"Wild":16295,"clim":16296,"dates":16297,"dial":16298,"karma":16299,"mac":16300,"naked":16301,"بز":16302,"قط":16303,"rebell":16304,"ouston":16305,"eness":16306,"stir":16307,"icop":16308,"amento":16309,"iros":16310,"university":16311,"dox":16312,"prize":16313,"frame":16314,"...!":16315,"🇺🇸🙏🏼":16316,"exha":16317,"extermin":16318,"ques":16319,"overbs":16320,"cile":16321,"inda":16322,"الد":16323,"polític":16324,"happiness":16325,"clin":16326,"Repor":16327,"Beck":16328,"Beetle":16329,"cheer":16330,"Mayors":16331,"AKES":16332,"democratsare":16333,"signing":16334,"signaling":16335,"riddance":16336,"PEACE":16337,"12th":16338,"sidney":16339,"SHIP":16340,"Blessed":16341,"corrected":16342,"THATS":16343,"folk":16344,"electing":16345,"walls":16346,"connections":16347,"hotel":16348,"revolt":16349,"IZE":16350,"Officers":16351,"documentary":16352,"moderator":16353,"Members":16354,"Elizabeth":16355,"improve":16356,"coordinated":16357,"Simply":16358,"heritage":16359,"STOPTHESTEAL":16360,"BOYCOTT":16361,",’":16362,"03":16363,"Bom":16364,"FISA":16365,"IB":16366,"Jac":16367,"Kiss":16368,"Sat":16369,"Sucks":16370,"aqu":16371,"hub":16372,"ored":16373,"tch":16374,"xim":16375,"لما":16376,"🎉🎉":16377,"😡🤬":16378,"inho":16379,"atro":16380,"aret":16381,"verdade":16382,"adrenochrome":16383,"etic":16384,"wears":16385,"dod":16386,"soil":16387,"🇺🇸💪":16388,"sums":16389,"Heck":16390,"moreyears":16391,"viet":16392,"boots":16393,"Soldiers":16394,"Univers":16395,"ASSHO":16396,"afternoon":16397,"warming":16398,"communicate":16399,"Associ":16400,"handful":16401,"questioned":16402,"invasion":16403,"balanced":16404,"VOTED":16405,"steria":16406,
[...]
